{
    "<unk>": 0,
    "<s>": 1,
    "</s>": 2,
    ".": 3,
    "을": 4,
    "를": 5,
    "는": 6,
    "의": 7,
    "가": 8,
    "은": 9,
    "▁나는": 10,
    "▁": 11,
    "▁수": 12,
    "▁저는": 13,
    "에": 14,
    "이": 15,
    "?": 16,
    "▁이": 17,
    "도": 18,
    ",": 19,
    "▁있습니다": 20,
    "고": 21,
    "로": 22,
    "과": 23,
    "▁그": 24,
    "▁내가": 25,
    "으로": 26,
    "▁우리는": 27,
    "▁당신이": 28,
    "▁있는": 29,
    "와": 30,
    "▁우리": 31,
    "에서": 32,
    "▁당신은": 33,
    "▁제가": 34,
    "▁내": 35,
    "▁것": 36,
    "▁더": 37,
    "한": 38,
    "▁할": 39,
    "서": 40,
    "▁합니다": 41,
    "▁있어요": 42,
    "▁잘": 43,
    "지": 44,
    "▁오늘": 45,
    "▁당신의": 46,
    "▁한": 47,
    "▁때": 48,
    "게": 49,
    "▁제": 50,
    "하고": 51,
    "▁것입니다": 52,
    "▁많이": 53,
    "▁안": 54,
    "▁있어": 55,
    "▁해": 56,
    "할": 57,
    "▁위해": 58,
    "▁지금": 59,
    "▁난": 60,
    "▁너무": 61,
    "▁많은": 62,
    "▁다른": 63,
    "▁다시": 64,
    "만": 65,
    "▁해요": 66,
    "▁하는": 67,
    "▁하고": 68,
    "▁좋은": 69,
    "▁정말": 70,
    "▁가장": 71,
    "▁거예요": 72,
    "▁2": 73,
    "▁주세요": 74,
    "▁함께": 75,
    "인": 76,
    "▁그리고": 77,
    "▁제품": 78,
    "나": 79,
    "▁대한": 80,
    "하게": 81,
    "▁1": 82,
    "▁우리가": 83,
    "▁좀": 84,
    "▁바랍니다": 85,
    "면": 86,
    "▁게": 87,
    "▁보내": 88,
    "▁대해": 89,
    "▁하지만": 90,
    "▁당신": 91,
    "▁전": 92,
    "▁저희": 93,
    "히": 94,
    "▁저": 95,
    "▁나의": 96,
    "▁같이": 97,
    "▁시간": 98,
    "▁다음": 99,
    "▁모든": 100,
    "▁있나요": 101,
    "▁나": 102,
    "▁어떻게": 103,
    "▁싶습니다": 104,
    "▁왜": 105,
    "▁거야": 106,
    "들은": 107,
    "▁3": 108,
    "▁이것": 109,
    "▁될": 110,
    "▁영어": 111,
    "▁내일": 112,
    "▁다": 113,
    "▁어떤": 114,
    "일": 115,
    "▁당신에게": 116,
    "월": 117,
    "▁이번": 118,
    "▁후": 119,
    "▁됩니다": 120,
    "▁모두": 121,
    "▁두": 122,
    "된": 123,
    "▁보고": 124,
    "▁중": 125,
    "▁같아": 126,
    "▁거": 127,
    "▁같아요": 128,
    "▁주": 129,
    "입니다": 130,
    "▁없습니다": 131,
    "▁또한": 132,
    "▁같은": 133,
    "▁한국": 134,
    "▁줄": 135,
    "▁일": 136,
    "▁했어요": 137,
    "년": 138,
    "▁건": 139,
    "에게": 140,
    "▁나에게": 141,
    "하지": 142,
    "▁영화": 143,
    "▁있을": 144,
    "▁싶어요": 145,
    "▁해야": 146,
    "까지": 147,
    "▁갈": 148,
    "▁매우": 149,
    "▁것이에요": 150,
    "▁것을": 151,
    "▁못": 152,
    "▁시간이": 153,
    "▁일을": 154,
    "▁사람이": 155,
    "▁큰": 156,
    "▁음식": 157,
    "▁친구": 158,
    "▁않습니다": 159,
    "야": 160,
    "▁또": 161,
    "▁알고": 162,
    "적인": 163,
    "▁가지고": 164,
    "▁집에": 165,
    "▁전에": 166,
    "▁때문에": 167,
    "▁네가": 168,
    "▁그녀": 169,
    "▁하지": 170,
    "▁만약": 171,
    "▁항상": 172,
    "▁알려": 173,
    "들이": 174,
    "▁회사": 175,
    "▁너는": 176,
    "것은": 177,
    "▁이제": 178,
    "▁통해": 179,
    "▁사진": 180,
    "▁오늘은": 181,
    "▁얼마": 182,
    "▁없어요": 183,
    "라고": 184,
    "▁것이": 185,
    "▁하나": 186,
    "▁5": 187,
    "▁당신을": 188,
    "▁동안": 189,
    "▁새로운": 190,
    "하여": 191,
    "▁싶어": 192,
    "▁볼": 193,
    "▁있다": 194,
    "하는": 195,
    "▁확인": 196,
    "▁일이": 197,
    "▁너의": 198,
    "해서": 199,
    "▁아래": 200,
    "▁있어서": 201,
    "부터": 202,
    "▁4": 203,
    "▁아직": 204,
    "보다": 205,
    "요": 206,
    "▁몇": 207,
    "▁되어": 208,
    "기": 209,
    "▁바로": 210,
    "▁어제": 211,
    "▁나를": 212,
    "▁정보": 213,
    "▁10": 214,
    "▁조금": 215,
    "▁사용": 216,
    "▁드립니다": 217,
    "▁먼저": 218,
    "▁한번": 219,
    "▁꼭": 220,
    "▁것은": 221,
    "▁나도": 222,
    "▁저에게": 223,
    "▁그는": 224,
    "▁않아요": 225,
    "▁걸": 226,
    "▁문제": 227,
    "▁이야기": 228,
    "▁위한": 229,
    "▁남자": 230,
    "▁좋아하는": 231,
    "▁현재": 232,
    "▁및": 233,
    "▁그의": 234,
    "▁같습니다": 235,
    "▁열심히": 236,
    "▁너": 237,
    "처럼": 238,
    "▁시": 239,
    "▁없는": 240,
    "▁없어": 241,
    "▁날": 242,
    "▁된": 243,
    "▁했습니다": 244,
    "▁당신과": 245,
    "▁가지": 246,
    "▁경우": 247,
    "▁문제가": 248,
    "▁가는": 249,
    "▁주문": 250,
    "▁해서": 251,
    "▁이런": 252,
    "들을": 253,
    "▁사진을": 254,
    "때문에": 255,
    "▁진행": 256,
    "▁계속": 257,
    "▁대해서": 258,
    "▁다양한": 259,
    "▁여행": 260,
    "하면": 261,
    "▁가": 262,
    "▁아주": 263,
    "▁생각합니다": 264,
    "▁수업": 265,
    "▁요즘": 266,
    "▁마음": 267,
    "▁한국에": 268,
    "▁저의": 269,
    "▁직접": 270,
    "▁그렇게": 271,
    "이나": 272,
    "▁따라": 273,
    "▁지": 274,
    "▁오": 275,
    "▁그것을": 276,
    "▁때문입니다": 277,
    "▁본": 278,
    "▁하면": 279,
    "▁빨리": 280,
    "▁이렇게": 281,
    "▁그래서": 282,
    "▁정도": 283,
    "▁꿈": 284,
    "▁않고": 285,
    "▁필요한": 286,
    "▁하겠습니다": 287,
    "▁네": 288,
    "▁이러한": 289,
    "▁처음": 290,
    "▁여자": 291,
    "▁그런": 292,
    "▁여기": 293,
    "라는": 294,
    "▁살": 295,
    "▁있으면": 296,
    "▁후에": 297,
    "해야": 298,
    "▁있습니까": 299,
    "하기": 300,
    "▁되는": 301,
    "▁니가": 302,
    "▁되었습니다": 303,
    "▁언제": 304,
    "▁가고": 305,
    "▁준비": 306,
    "▁되고": 307,
    "▁서로": 308,
    "▁말을": 309,
    "▁일정": 310,
    "▁주는": 311,
    "▁사람들이": 312,
    "▁차": 313,
    "▁없이": 314,
    "▁그러나": 315,
    "▁등": 316,
    "▁있도록": 317,
    "▁부탁": 318,
    "▁왜냐하면": 319,
    "▁돈을": 320,
    "▁있었습니다": 321,
    "▁샘플": 322,
    "▁상품": 323,
    "▁있을까요": 324,
    "▁집": 325,
    "것을": 326,
    "에는": 327,
    "▁하기": 328,
    "▁받을": 329,
    "▁싶은": 330,
    "▁이미": 331,
    "합니다": 332,
    "▁가서": 333,
    "▁않아": 334,
    "▁겁니다": 335,
    "▁데": 336,
    "▁6": 337,
    "▁사람들은": 338,
    "▁여러": 339,
    "▁한국에서": 340,
    "▁사": 341,
    "▁이유는": 342,
    "▁앞으로": 343,
    "▁제일": 344,
    "▁있는지": 345,
    "▁무슨": 346,
    "▁옷": 347,
    "던": 348,
    "▁생각해요": 349,
    "▁이건": 350,
    "▁서비스": 351,
    "▁있고": 352,
    "▁자주": 353,
    "▁온": 354,
    "▁중요한": 355,
    "▁않은": 356,
    "▁예정입니다": 357,
    "이라고": 358,
    "▁번": 359,
    "▁운동": 360,
    "▁드리겠습니다": 361,
    "▁보여": 362,
    "▁나와": 363,
    "▁않을": 364,
    "▁하여": 365,
    "▁때문이에요": 366,
    "시": 367,
    "▁이상": 368,
    "▁들어": 369,
    "랑": 370,
    "다": 371,
    "▁결과": 372,
    "▁매일": 373,
    "▁저녁": 374,
    "▁가격": 375,
    "▁알려주세요": 376,
    "▁주시기": 377,
    "적으로": 378,
    "▁고": 379,
    "▁친구가": 380,
    "▁시험": 381,
    "▁않는": 382,
    "▁생각해": 383,
    "▁아니라": 384,
    "▁알": 385,
    "▁예약": 386,
    "▁전화": 387,
    "▁경험": 388,
    "▁사실": 389,
    "▁사람은": 390,
    "▁혼자": 391,
    "▁일본": 392,
    "▁그럼": 393,
    "▁위해서": 394,
    "이에요": 395,
    "니": 396,
    "▁아이": 397,
    "▁나중에": 398,
    "▁무엇을": 399,
    "▁적": 400,
    "▁너에게": 401,
    "개": 402,
    "▁여행을": 403,
    "▁올": 404,
    "▁학교": 405,
    "▁먹고": 406,
    "▁사람": 407,
    "▁생각": 408,
    "▁연락": 409,
    "▁집에서": 410,
    "▁말": 411,
    "▁만들어": 412,
    "▁배송": 413,
    "며": 414,
    "▁약": 415,
    "▁있다면": 416,
    "▁일찍": 417,
    "▁필요": 418,
    "▁비용": 419,
    "▁내용": 420,
    "▁방": 421,
    "▁디자인": 422,
    "▁7": 423,
    "▁확인해": 424,
    "▁8": 425,
    "▁책을": 426,
    "▁그것은": 427,
    "▁술": 428,
    "▁주고": 429,
    "엔": 430,
    "▁되지": 431,
    "▁하루": 432,
    "▁아무": 433,
    "▁우리에게": 434,
    "▁필요합니다": 435,
    "▁추가": 436,
    "▁원하는": 437,
    "▁서류": 438,
    "▁도움이": 439,
    "▁사람들": 440,
    "▁기회": 441,
    "▁있게": 442,
    "▁도움": 443,
    "▁여러분": 444,
    "▁타고": 445,
    "▁친구들과": 446,
    "▁오래": 447,
    "▁아침": 448,
    "자": 449,
    "▁방법": 450,
    "▁계획": 451,
    "▁요청": 452,
    "▁관련": 453,
    "했어요": 454,
    "▁여기서": 455,
    "진": 456,
    "▁세계": 457,
    "▁되면": 458,
    "▁있다고": 459,
    "▁그림": 460,
    "▁작은": 461,
    "▁곳": 462,
    "▁있는데": 463,
    "▁이름": 464,
    "▁안에": 465,
    "▁사람을": 466,
    "▁어느": 467,
    "▁비": 468,
    "▁중국": 469,
    "러": 470,
    "▁20": 471,
    "▁있기": 472,
    "▁버스": 473,
    "▁미국": 474,
    "▁선물": 475,
    "길": 476,
    "▁생산": 477,
    "▁테스트": 478,
    "▁혹시": 479,
    "▁줍니다": 480,
    "▁더욱": 481,
    "▁인해": 482,
    "▁잠": 483,
    "▁너를": 484,
    "▁모습": 485,
    "분": 486,
    "▁제품은": 487,
    "▁파일": 488,
    "▁엄마": 489,
    "▁한국의": 490,
    "▁만날": 491,
    "▁자": 492,
    "해": 493,
    "▁책": 494,
    "▁감사합니다": 495,
    "될": 496,
    "▁마세요": 497,
    "것이": 498,
    "거나": 499,
    "▁좋아요": 500,
    "▁아닌": 501,
    "▁변경": 502,
    "도록": 503,
    "▁학교에": 504,
    "▁번호": 505,
    "▁살고": 506,
    "▁좋아": 507,
    "▁세": 508,
    "▁삶": 509,
    "▁좋겠어": 510,
    "▁돼": 511,
    "▁주시면": 512,
    "▁첫": 513,
    "▁될까요": 514,
    "▁보면": 515,
    "▁그냥": 516,
    "▁부탁드립니다": 517,
    "▁하나요": 518,
    "▁구매": 519,
    "▁기분이": 520,
    "▁이번에": 521,
    "▁받고": 522,
    "▁그런데": 523,
    "▁말고": 524,
    "▁사용할": 525,
    "▁가능한": 526,
    "▁위": 527,
    "시에": 528,
    "▁얘기": 529,
    "▁가능합니다": 530,
    "▁친구들": 531,
    "▁받아": 532,
    "▁있으니": 533,
    "▁나라": 534,
    "▁교육": 535,
    "▁쉽게": 536,
    "▁행동": 537,
    "▁9": 538,
    "▁카드": 539,
    "▁사랑": 540,
    "▁되나요": 541,
    "▁비행기": 542,
    "▁점": 543,
    "▁문화": 544,
    "▁자기": 545,
    "▁간": 546,
    "▁영향": 547,
    "▁판매": 548,
    "▁답변": 549,
    "▁좋습니다": 550,
    "▁지금은": 551,
    "▁고객": 552,
    "▁첨부": 553,
    "▁와서": 554,
    "▁않았습니다": 555,
    "▁특히": 556,
    "▁따라서": 557,
    "▁유명한": 558,
    "▁업무": 559,
    "▁대부분": 560,
    "▁자신의": 561,
    "일에": 562,
    "▁좋겠어요": 563,
    "▁새": 564,
    "▁지난": 565,
    "▁보는": 566,
    "▁참": 567,
    "▁너희": 568,
    "▁자료": 569,
    "▁하게": 570,
    "▁공부": 571,
    "▁있지": 572,
    "▁마음이": 573,
    "▁왔습니다": 574,
    "▁활동": 575,
    "▁했어": 576,
    "▁받았습니다": 577,
    "▁그가": 578,
    "▁가야": 579,
    "▁대화": 580,
    "▁사는": 581,
    "▁나한테": 582,
    "▁좋아합니다": 583,
    "▁머리": 584,
    "달러": 585,
    "▁이해": 586,
    "▁관심이": 587,
    "▁기억": 588,
    "▁친구와": 589,
    "▁그들": 590,
    "▁아이들": 591,
    "▁선적": 592,
    "▁날씨": 593,
    "▁주실": 594,
    "▁맛": 595,
    "▁갑니다": 596,
    "▁건강": 597,
    "▁메일을": 598,
    "▁주셔서": 599,
    "▁프로젝트": 600,
    "▁아닙니다": 601,
    "해요": 602,
    "▁종류": 603,
    "▁받은": 604,
    "▁있다는": 605,
    "▁하는데": 606,
    "▁번째": 607,
    "▁30": 608,
    "▁밥": 609,
    "▁도와": 610,
    "인지": 611,
    "▁잘못": 612,
    "▁보세요": 613,
    "▁하": 614,
    "▁부분": 615,
    "▁공부를": 616,
    "▁다음에": 617,
    "▁컴퓨터": 618,
    "으면": 619,
    "▁그에게": 620,
    "▁개": 621,
    "▁관계": 622,
    "▁차이": 623,
    "▁눈": 624,
    "번": 625,
    "▁12": 626,
    "▁돼요": 627,
    "▁문의": 628,
    "▁만나": 629,
    "'": 630,
    "▁보통": 631,
    "시간": 632,
    "▁각": 633,
    "▁만들": 634,
    "▁사업": 635,
    "▁없을": 636,
    "▁먹을": 637,
    "▁높은": 638,
    "▁마": 639,
    "▁한다고": 640,
    "▁결제": 641,
    "▁많습니다": 642,
    "▁주에": 643,
    "▁개발": 644,
    "▁부": 645,
    "▁마지막": 646,
    "▁A": 647,
    "▁멋진": 648,
    "▁약속": 649,
    "▁학생들": 650,
    "▁지원": 651,
    "이라는": 652,
    "혀": 653,
    "▁보내주세요": 654,
    "▁일주일": 655,
    "▁아침에": 656,
    "▁노력": 657,
    "▁인터넷": 658,
    "▁해도": 659,
    "▁사이즈": 660,
    "▁가면": 661,
    "▁기술": 662,
    "▁있니": 663,
    "▁관한": 664,
    "▁주소": 665,
    "▁마지막으로": 666,
    "▁우선": 667,
    "▁없어서": 668,
    "▁물건을": 669,
    "▁받지": 670,
    "▁올해": 671,
    "▁중에": 672,
    "▁요리": 673,
    "▁작업": 674,
    "▁보니": 675,
    "▁때는": 676,
    "▁메일": 677,
    "▁하세요": 678,
    "▁제품이": 679,
    "▁먹는": 680,
    "▁맛있는": 681,
    "다고": 682,
    "▁자동차": 683,
    "▁인간": 684,
    "▁상황": 685,
    "▁빠른": 686,
    "▁그러면": 687,
    "▁물론": 688,
    "▁가게": 689,
    "지만": 690,
    "▁있지만": 691,
    "▁손": 692,
    "▁대로": 693,
    "▁보낼": 694,
    "▁팀": 695,
    "▁중입니다": 696,
    "▁검사": 697,
    "▁이것이": 698,
    "▁그들의": 699,
    "▁속": 700,
    "▁보낸": 701,
    "▁카메라": 702,
    "▁주면": 703,
    "▁언제나": 704,
    "▁하며": 705,
    "▁전달": 706,
    "▁총": 707,
    "▁건가요": 708,
    "▁발송": 709,
    "▁여기에": 710,
    "▁피부": 711,
    "마다": 712,
    "▁적이": 713,
    "▁대학": 714,
    "명": 715,
    "▁관심": 716,
    "하도록": 717,
    "▁아니면": 718,
    "▁최대한": 719,
    "▁저도": 720,
    "▁곳에": 721,
    "▁사고": 722,
    "▁노래": 723,
    "▁너와": 724,
    "▁이거": 725,
    "▁그들이": 726,
    "▁처리": 727,
    "▁특별한": 728,
    "▁학생": 729,
    "▁이유": 730,
    "▁장소": 731,
    "▁달": 732,
    "▁글": 733,
    "▁목표": 734,
    "▁절대": 735,
    "▁바라": 736,
    "▁설명": 737,
    "▁해당": 738,
    "습니다": 739,
    "▁근처에": 740,
    "▁직업": 741,
    "▁위에": 742,
    "▁영상": 743,
    "▁연구": 744,
    "▁지금까지": 745,
    "▁부모님": 746,
    "▁물": 747,
    "하며": 748,
    "▁진짜": 749,
    "▁커피": 750,
    "▁점심": 751,
    "▁생각을": 752,
    "▁계약": 753,
    "▁호텔": 754,
    "▁좋을": 755,
    "▁만든": 756,
    "▁경기": 757,
    "▁하는지": 758,
    "▁왔어요": 759,
    "▁만큼": 760,
    "▁수량": 761,
    "▁위해서는": 762,
    "들의": 763,
    "▁미리": 764,
    "▁거의": 765,
    "월에": 766,
    "▁것으로": 767,
    "▁준": 768,
    "대": 769,
    "▁생각에": 770,
    "▁하려고": 771,
    "▁역시": 772,
    "란": 773,
    "▁않으면": 774,
    "▁갖고": 775,
    "▁발표": 776,
    "▁말해": 777,
    "주세요": 778,
    "▁a": 779,
    "▁좋아해요": 780,
    "▁하면서": 781,
    "▁알아": 782,
    "▁효과": 783,
    "▁생각이": 784,
    "것으로": 785,
    "더": 786,
    "▁관리": 787,
    "▁뭐": 788,
    "▁광고": 789,
    "▁싶다": 790,
    "▁사람의": 791,
    "▁봐": 792,
    "▁굉장히": 793,
    "▁최고의": 794,
    "▁가진": 795,
    "▁주신": 796,
    "▁기능": 797,
    "▁기다리": 798,
    "▁거에요": 799,
    "했던": 800,
    "▁곧": 801,
    "▁나서": 802,
    "▁정확한": 803,
    "▁만드는": 804,
    "▁아름다운": 805,
    "▁게임": 806,
    "▁그것이": 807,
    "▁않았어요": 808,
    "▁남편": 809,
    "▁관해": 810,
    "▁주시겠어요": 811,
    "▁옆에": 812,
    "▁서울": 813,
    "▁인기": 814,
    "▁알게": 815,
    "▁씨": 816,
    "▁기": 817,
    "▁날짜": 818,
    "▁최선을": 819,
    "▁연락을": 820,
    "▁반드시": 821,
    "▁결혼": 822,
    "▁주말에": 823,
    "▁수정": 824,
    "▁크게": 825,
    "▁의미": 826,
    "▁몸": 827,
    "▁기존": 828,
    "▁휴가": 829,
    "▁원합니다": 830,
    "▁데이터": 831,
    "대로": 832,
    "▁시작": 833,
    "▁말씀": 834,
    "▁미래": 835,
    "▁대신": 836,
    "▁자리": 837,
    "▁돈": 838,
    "▁있었어요": 839,
    "▁비가": 840,
    "▁보기": 841,
    "해주세요": 842,
    "▁즐거운": 843,
    "▁안전": 844,
    "▁자신이": 845,
    "어": 846,
    "▁하도록": 847,
    "▁뒤": 848,
    "▁개인": 849,
    "▁했던": 850,
    "거슨": 851,
    "▁늘": 852,
    "▁가방": 853,
    "▁했는데": 854,
    "▁제게": 855,
    "▁실수": 856,
    "▁마음에": 857,
    "한테": 858,
    "▁검토": 859,
    "▁되기": 860,
    "▁미안하지만": 861,
    "▁밤에": 862,
    "▁말이": 863,
    "되어": 864,
    "▁줄게": 865,
    "▁변화": 866,
    "▁아마": 867,
    "▁주제": 868,
    "▁전화를": 869,
    "▁11": 870,
    "▁방문": 871,
    "▁듣고": 872,
    "▁된다면": 873,
    "▁게임을": 874,
    "▁지역": 875,
    "▁친구들이": 876,
    "▁저녁에": 877,
    "▁좋겠습니다": 878,
    "는데": 879,
    "▁선생님": 880,
    "▁가기": 881,
    "▁누가": 882,
    "로부터": 883,
    "▁자세": 884,
    "예요": 885,
    "▁세상": 886,
    "드리겠습니다": 887,
    "수도": 888,
    "▁식사": 889,
    "▁넌": 890,
    "▁금액": 891,
    "▁돈이": 892,
    "▁회사에서": 893,
    "▁자연": 894,
    "▁나머지": 895,
    "▁생각하는": 896,
    "▁주로": 897,
    "▁15": 898,
    "▁딸": 899,
    "▁집으로": 900,
    "▁거래": 901,
    "▁시간에": 902,
    "▁좋아해": 903,
    "▁충분히": 904,
    "하려고": 905,
    "▁스트레스": 906,
    "▁대": 907,
    "▁어디에": 908,
    "▁누군가": 909,
    "▁최근": 910,
    "▁줘서": 911,
    "▁잊지": 912,
    "▁때까지": 913,
    "▁브랜드": 914,
    "▁가족": 915,
    "▁면": 916,
    "▁주기": 917,
    "▁오는": 918,
    "▁행복": 919,
    "볼": 920,
    "▁들": 921,
    "▁일에": 922,
    "▁모델": 923,
    "▁사용하는": 924,
    "▁형태": 925,
    "▁되": 926,
    "▁못할": 927,
    "▁좋지": 928,
    "▁제작": 929,
    "▁추가로": 930,
    "중에": 931,
    "▁외국인": 932,
    "▁사람들에게": 933,
    "▁키": 934,
    "▁눈이": 935,
    "선": 936,
    "▁바라요": 937,
    "▁싶지": 938,
    "▁매": 939,
    "▁밤": 940,
    "▁늦게": 941,
    "▁찾고": 942,
    "우린": 943,
    "▁제대로": 944,
    "에요": 945,
    "▁요금": 946,
    "▁환불": 947,
    "▁아무것도": 948,
    "▁못했습니다": 949,
    "▁못한": 950,
    "▁인형": 951,
    "▁널": 952,
    "▁영어로": 953,
    "등": 954,
    "라": 955,
    "▁입고": 956,
    "▁보": 957,
    "▁문서": 958,
    "▁역할": 959,
    "▁갔어요": 960,
    "▁의사": 961,
    "▁수도": 962,
    "▁능력": 963,
    "▁반": 964,
    "▁즐겁게": 965,
    "▁상태": 966,
    "▁단지": 967,
    "▁덕분에": 968,
    "▁언어": 969,
    "▁보러": 970,
    "▁회사에": 971,
    "주": 972,
    "라도": 973,
    "▁있으며": 974,
    "▁점점": 975,
    "▁학교에서": 976,
    "▁영화는": 977,
    "▁신": 978,
    "▁등록": 979,
    "인데": 980,
    "▁넣어": 981,
    "▁사과": 982,
    "▁얼굴": 983,
    "▁통해서": 984,
    "▁일하고": 985,
    "▁발전": 986,
    "▁음악": 987,
    "▁중이에요": 988,
    "시길": 989,
    "▁오랜만": 990,
    "▁재": 991,
    "▁대학교": 992,
    "▁그건": 993,
    "▁집을": 994,
    "▁마케팅": 995,
    "▁단": 996,
    "▁취소": 997,
    "▁사회": 998,
    "▁선택": 999,
    "▁드릴게요": 1000,
    "▁월요일": 1001,
    "▁어디": 1002,
    "▁쓰": 1003,
    "▁아직도": 1004,
    "▁있었어": 1005,
    "▁어디서": 1006,
    "▁행복한": 1007,
    "▁주문한": 1008,
    "▁갔습니다": 1009,
    "▁나이": 1010,
    "▁오후": 1011,
    "면서": 1012,
    "▁오면": 1013,
    "▁미팅": 1014,
    "▁가격이": 1015,
    "▁않았어": 1016,
    "질": 1017,
    "직": 1018,
    "▁지급": 1019,
    "▁타": 1020,
    "▁회의": 1021,
    "▁시장": 1022,
    "려고": 1023,
    "▁환경": 1024,
    "▁힘든": 1025,
    "▁순간": 1026,
    "▁내게": 1027,
    "▁아니야": 1028,
    "▁너한테": 1029,
    "▁'": 1030,
    "▁스케줄": 1031,
    "▁오후에": 1032,
    "가지": 1033,
    "▁전체": 1034,
    "▁명": 1035,
    "▁장비": 1036,
    "▁보냅니다": 1037,
    "리": 1038,
    "▁하러": 1039,
    "▁않아서": 1040,
    "▁메뉴": 1041,
    "▁공연": 1042,
    "▁예정이에요": 1043,
    "▁아는": 1044,
    "▁도시": 1045,
    "▁핸드폰": 1046,
    "▁참여": 1047,
    "▁구": 1048,
    "▁맞는": 1049,
    "▁강아지": 1050,
    "▁그곳에": 1051,
    "하러": 1052,
    "▁제품에": 1053,
    "▁귀사": 1054,
    "▁친구는": 1055,
    "려면": 1056,
    "▁별로": 1057,
    "▁그게": 1058,
    "▁메시지": 1059,
    "▁인생": 1060,
    "▁주지": 1061,
    "▁아니에요": 1062,
    "긴": 1063,
    "종일": 1064,
    "▁못해서": 1065,
    "▁왔어": 1066,
    "▁사항": 1067,
    "▁지하철": 1068,
    "▁월요일에": 1069,
    "▁관련된": 1070,
    "됩니다": 1071,
    "▁가끔": 1072,
    "▁기간": 1073,
    "▁가요": 1074,
    "▁사랑하는": 1075,
    "▁먹어": 1076,
    "▁죄송하지만": 1077,
    "▁회신": 1078,
    "용": 1079,
    "▁작품": 1080,
    "개의": 1081,
    "▁취미": 1082,
    "▁파티": 1083,
    "▁해주세요": 1084,
    "▁성격": 1085,
    "▁이메일": 1086,
    "▁받는": 1087,
    "▁갔다": 1088,
    "▁생일": 1089,
    "▁생활": 1090,
    "▁저한테": 1091,
    "▁발생": 1092,
    "▁표": 1093,
    "▁당시": 1094,
    "▁새로": 1095,
    "이고": 1096,
    "▁이름은": 1097,
    "▁결국": 1098,
    "▁문": 1099,
    "▁약간": 1100,
    "▁곳이": 1101,
    "▁감사하겠습니다": 1102,
    "▁필요해요": 1103,
    "▁시스템": 1104,
    "▁있을까": 1105,
    "▁역사": 1106,
    "▁이후": 1107,
    "▁이유가": 1108,
    "▁따로": 1109,
    "▁사람에게": 1110,
    "▁찍은": 1111,
    "▁인": 1112,
    "▁배": 1113,
    "▁이게": 1114,
    "니까": 1115,
    "▁기업": 1116,
    "▁졸업": 1117,
    "▁산": 1118,
    "▁피": 1119,
    "▁업데이트": 1120,
    "▁뒤에": 1121,
    "▁없고": 1122,
    "▁100": 1123,
    "▁설치": 1124,
    "▁인보이스": 1125,
    "▁그때": 1126,
    "▁티켓": 1127,
    "▁힘들": 1128,
    "▁없다고": 1129,
    "▁승인": 1130,
    "▁최종": 1131,
    "▁장": 1132,
    "▁예를": 1133,
    "▁그걸": 1134,
    "▁그래도": 1135,
    "▁스스로": 1136,
    "▁이곳은": 1137,
    "▁조건": 1138,
    "▁나쁜": 1139,
    "▁축구": 1140,
    "▁원래": 1141,
    "▁신경": 1142,
    "▁기대": 1143,
    "▁국가": 1144,
    "▁원": 1145,
    "▁한다면": 1146,
    "▁사람들의": 1147,
    "▁요청한": 1148,
    "▁않아도": 1149,
    "▁축제": 1150,
    "▁자신을": 1151,
    "▁걱정": 1152,
    "▁결정": 1153,
    "▁막": 1154,
    "▁쇼핑": 1155,
    "▁이용": 1156,
    "▁메시지를": 1157,
    "▁대하여": 1158,
    "개월": 1159,
    "▁기분": 1160,
    "기를": 1161,
    "▁일단": 1162,
    "▁주변": 1163,
    "▁말하는": 1164,
    "▁들었어요": 1165,
    "▁스포츠": 1166,
    "▁놀러": 1167,
    "▁점이": 1168,
    "▁어려운": 1169,
    "▁찍어": 1170,
    "▁기계": 1171,
    "▁한국어": 1172,
    "▁열": 1173,
    "▁분석": 1174,
    "▁싶은데": 1175,
    "▁때마다": 1176,
    "▁인천": 1177,
    "▁운영": 1178,
    "▁드릴": 1179,
    "▁질": 1180,
    "▁추억": 1181,
    "▁상": 1182,
    "▁벌써": 1183,
    "▁언제든": 1184,
    "▁은행": 1185,
    "▁토요일": 1186,
    "▁앱": 1187,
    "▁된다": 1188,
    "▁많아요": 1189,
    "▁주말": 1190,
    "▁이미지": 1191,
    "▁아기": 1192,
    "▁도착": 1193,
    "▁고등학교": 1194,
    "▁감사": 1195,
    "▁앞에": 1196,
    "▁달라고": 1197,
    "▁소개": 1198,
    "신": 1199,
    "▁신청": 1200,
    "▁피해": 1201,
    "▁작업을": 1202,
    "▁아내": 1203,
    "데": 1204,
    "▁완료": 1205,
    "천": 1206,
    "▁확실": 1207,
    "▁일부": 1208,
    "되고": 1209,
    "▁건물": 1210,
    "▁여성": 1211,
    "▁일반": 1212,
    "▁리스트": 1213,
    "▁도": 1214,
    "▁여전": 1215,
    "▁최근에": 1216,
    "▁감사드립니다": 1217,
    "▁미": 1218,
    "▁음악을": 1219,
    "▁전공": 1220,
    "▁크기": 1221,
    "▁스타일": 1222,
    "▁마치": 1223,
    "회": 1224,
    "▁얻": 1225,
    "▁소리": 1226,
    "▁예전에": 1227,
    "▁아버지": 1228,
    "▁가르쳐": 1229,
    "▁진심으로": 1230,
    "▁부분이": 1231,
    "▁다리": 1232,
    "▁번역": 1233,
    "▁많아": 1234,
    "▁출장": 1235,
    "▁정부": 1236,
    "▁장점": 1237,
    "▁토요일에": 1238,
    "▁빠르게": 1239,
    "▁첫번째": 1240,
    "▁주길": 1241,
    "2": 1242,
    "▁포장": 1243,
    "▁죄송합니다": 1244,
    "▁방금": 1245,
    "▁불": 1246,
    "▁못했어요": 1247,
    "▁질문": 1248,
    "▁방법이": 1249,
    "▁정확히": 1250,
    "▁일하는": 1251,
    "되지": 1252,
    "하면서": 1253,
    "▁아니": 1254,
    "▁길": 1255,
    "▁버튼": 1256,
    "▁단어": 1257,
    "▁와": 1258,
    "▁가까운": 1259,
    "▁금요일": 1260,
    "▁운전": 1261,
    "▁B": 1262,
    "밖에": 1263,
    "동안": 1264,
    "▁두번째": 1265,
    "▁크리스마스": 1266,
    "▁선": 1267,
    "▁이메일로": 1268,
    "▁전부": 1269,
    "▁영국": 1270,
    "▁없었습니다": 1271,
    "▁맥주": 1272,
    "▁긍정적": 1273,
    "▁오지": 1274,
    "▁나오는": 1275,
    "▁부탁합니다": 1276,
    "▁법": 1277,
    "위": 1278,
    "▁남은": 1279,
    "▁느낄": 1280,
    "▁연습": 1281,
    "▁이사": 1282,
    "▁언니": 1283,
    "▁남자친구": 1284,
    "드립니다": 1285,
    "▁들었습니다": 1286,
    "▁아마도": 1287,
    "▁배우고": 1288,
    "▁포인트": 1289,
    "▁것도": 1290,
    "▁담당자": 1291,
    "▁쓰레기": 1292,
    "▁일요일에": 1293,
    "▁만난": 1294,
    "줍니다": 1295,
    "▁아": 1296,
    "▁사이트": 1297,
    "▁각각": 1298,
    "▁실제": 1299,
    "▁못해": 1300,
    "▁숙제": 1301,
    "▁무엇이": 1302,
    "▁동물": 1303,
    "▁따뜻한": 1304,
    "▁길을": 1305,
    "▁하니": 1306,
    "▁행사": 1307,
    "▁우리나라": 1308,
    "▁가족들": 1309,
    "이며": 1310,
    "▁필리핀": 1311,
    "▁생각하고": 1312,
    "▁화가": 1313,
    "▁모르겠어요": 1314,
    "▁성공": 1315,
    "▁개선": 1316,
    "▁바다": 1317,
    "▁양": 1318,
    "▁진행할": 1319,
    "▁되었어요": 1320,
    "▁나무": 1321,
    "▁만": 1322,
    "▁여자가": 1323,
    "▁바": 1324,
    "▁찾아": 1325,
    "▁꽃": 1326,
    "▁페이스북": 1327,
    "▁보입니다": 1328,
    "▁할지": 1329,
    "▁보내고": 1330,
    "수가": 1331,
    "이라도": 1332,
    "▁없다": 1333,
    "▁아빠": 1334,
    "▁분": 1335,
    "▁여름": 1336,
    "▁원해요": 1337,
    "▁서": 1338,
    "▁것에": 1339,
    "▁보았습니다": 1340,
    "▁밖에": 1341,
    "▁물을": 1342,
    "▁갑": 1343,
    "▁이곳에": 1344,
    "▁모르는": 1345,
    "▁그와": 1346,
    "▁함": 1347,
    "▁해결": 1348,
    "▁소중한": 1349,
    "이랑": 1350,
    "▁긴": 1351,
    "▁사용자": 1352,
    "▁견적": 1353,
    "▁유지": 1354,
    "▁색": 1355,
    "▁인사": 1356,
    "▁사용하고": 1357,
    "▁만들고": 1358,
    "뿐만": 1359,
    "▁일요일": 1360,
    "▁성": 1361,
    "▁않도록": 1362,
    "에도": 1363,
    "디": 1364,
    "▁내용은": 1365,
    "하려면": 1366,
    "▁소개해": 1367,
    "▁선수": 1368,
    "▁의해": 1369,
    "▁사람들과": 1370,
    "▁그러므로": 1371,
    "▁송금": 1372,
    "▁천": 1373,
    "▁맞춰": 1374,
    "▁이전에": 1375,
    "▁방법은": 1376,
    "▁박스": 1377,
    "▁이걸": 1378,
    "▁만나서": 1379,
    "▁의견을": 1380,
    "▁며칠": 1381,
    "▁찾을": 1382,
    "▁컬러": 1383,
    "▁요구": 1384,
    "하신": 1385,
    "▁두고": 1386,
    "▁보내준": 1387,
    "▁공급": 1388,
    "▁색상": 1389,
    "▁위치": 1390,
    "▁정": 1391,
    "▁청소": 1392,
    "▁입": 1393,
    "▁누구": 1394,
    "▁즐길": 1395,
    "▁궁금합니다": 1396,
    "▁그렇다면": 1397,
    "▁좋아하지": 1398,
    "▁b": 1399,
    "▁적어": 1400,
    "▁봤어요": 1401,
    "▁상황이": 1402,
    "차": 1403,
    "▁드라마": 1404,
    "▁어때": 1405,
    "▁사항이": 1406,
    "▁퇴근": 1407,
    "▁느낌": 1408,
    "▁길이": 1409,
    "▁앞에서": 1410,
    "살": 1411,
    "▁날이": 1412,
    "▁비용이": 1413,
    "▁온라인": 1414,
    "▁보이는": 1415,
    "▁내년에": 1416,
    "▁고양이": 1417,
    "▁나랑": 1418,
    "▁통화": 1419,
    "▁어렸을": 1420,
    "▁택시": 1421,
    "▁중인": 1422,
    "▁기사": 1423,
    "▁직원": 1424,
    "▁품질": 1425,
    "▁성장": 1426,
    "아": 1427,
    "▁물품": 1428,
    "▁상처": 1429,
    "▁별": 1430,
    "▁재료": 1431,
    "기때문에": 1432,
    "▁자고": 1433,
    "층": 1434,
    "▁어떠한": 1435,
    "▁않기": 1436,
    "일까지": 1437,
    "▁있었다": 1438,
    "▁노래를": 1439,
    "▁만한": 1440,
    "▁편지를": 1441,
    "▁할인": 1442,
    "▁분야": 1443,
    "▁완전히": 1444,
    "▁것이라고": 1445,
    "▁가치": 1446,
    "▁지식": 1447,
    "▁있어야": 1448,
    "▁하루에": 1449,
    "▁확인할": 1450,
    "▁무료": 1451,
    "명이": 1452,
    "▁달에": 1453,
    "▁프로그램": 1454,
    "▁자유": 1455,
    "▁그대로": 1456,
    "▁없다면": 1457,
    "▁둘": 1458,
    "▁많아서": 1459,
    "▁합니까": 1460,
    "▁프로그램을": 1461,
    "▁오더": 1462,
    "까": 1463,
    "▁실제로": 1464,
    "임": 1465,
    "▁한잔": 1466,
    "▁몸이": 1467,
    "▁방식": 1468,
    "▁속에": 1469,
    "▁있던": 1470,
    "▁미안해요": 1471,
    "▁받았어요": 1472,
    "▁사진이": 1473,
    "▁존재": 1474,
    "▁경험이": 1475,
    "▁곳에서": 1476,
    "▁설명해": 1477,
    "▁가능": 1478,
    "▁한국으로": 1479,
    "▁거리": 1480,
    "▁것들을": 1481,
    "▁점수": 1482,
    "▁발": 1483,
    "▁최대": 1484,
    "▁유럽": 1485,
    "▁쓰는": 1486,
    "▁확인하고": 1487,
    "▁설정": 1488,
    "▁사용하지": 1489,
    "▁무엇입니까": 1490,
    "▁요청합니다": 1491,
    "▁잘못된": 1492,
    "▁만약에": 1493,
    "▁바꿔": 1494,
    "들과": 1495,
    "다면": 1496,
    "▁쉽지": 1497,
    "▁업체": 1498,
    "▁없었어요": 1499,
    "▁여러가지": 1500,
    "▁처음에": 1501,
    "▁연락이": 1502,
    "▁고민": 1503,
    "▁향상": 1504,
    "▁인상": 1505,
    "▁분위기": 1506,
    "▁필리핀에": 1507,
    "▁말한": 1508,
    "▁연결": 1509,
    "▁사람과": 1510,
    "랫": 1511,
    "▁병원": 1512,
    "▁들고": 1513,
    "▁공장": 1514,
    "▁미국에서": 1515,
    "▁부품": 1516,
    "▁생각하지": 1517,
    "▁메일로": 1518,
    "▁제안": 1519,
    "▁쓸": 1520,
    "었던": 1521,
    "▁감기": 1522,
    "지도": 1523,
    "▁과제": 1524,
    "▁직장": 1525,
    "▁잠시": 1526,
    "하길": 1527,
    "▁어렵습니다": 1528,
    "▁마시고": 1529,
    "▁그저": 1530,
    "▁두가지": 1531,
    "▁어머니": 1532,
    "▁문제에": 1533,
    "▁한다는": 1534,
    "▁했고": 1535,
    "▁안내": 1536,
    "▁뭘": 1537,
    "록": 1538,
    "▁예": 1539,
    "▁짐을": 1540,
    "▁어": 1541,
    "자기": 1542,
    "▁서울에": 1543,
    "▁병원에": 1544,
    "상": 1545,
    "▁모르겠어": 1546,
    "▁종종": 1547,
    "▁자꾸": 1548,
    "▁부산": 1549,
    "▁기다려": 1550,
    "▁그렇지": 1551,
    "▁음식이": 1552,
    "▁텐데": 1553,
    "었습니다": 1554,
    "▁선생님이": 1555,
    "▁살아": 1556,
    "▁가능한가요": 1557,
    "▁고마워요": 1558,
    "▁근무": 1559,
    "▁읽고": 1560,
    "▁말할": 1561,
    "▁19": 1562,
    "▁모양": 1563,
    "▁물건": 1564,
    "▁개의": 1565,
    "▁고마워": 1566,
    "씩": 1567,
    "▁집중": 1568,
    "▁스마트폰": 1569,
    "▁소재": 1570,
    "▁신발": 1571,
    "▁정도로": 1572,
    "▁못하는": 1573,
    "▁배우": 1574,
    "▁이메일을": 1575,
    "이라": 1576,
    "▁사이": 1577,
    "▁조금만": 1578,
    "▁지도": 1579,
    "▁커피를": 1580,
    "▁학생들이": 1581,
    "▁말은": 1582,
    "▁않게": 1583,
    "▁그녀를": 1584,
    "▁여름에": 1585,
    "▁만나고": 1586,
    "▁못합니다": 1587,
    "▁공간": 1588,
    "점": 1589,
    "실": 1590,
    "▁그녀에게": 1591,
    "▁인도": 1592,
    "▁전해": 1593,
    "▁너랑": 1594,
    "▁리": 1595,
    "스러운": 1596,
    "▁했을": 1597,
    "▁금요일에": 1598,
    "▁솔직히": 1599,
    "▁담배": 1600,
    "▁아무리": 1601,
    "▁못하고": 1602,
    "▁유": 1603,
    "▁만나는": 1604,
    "▁제출": 1605,
    "▁남아": 1606,
    "▁영수증": 1607,
    "▁가능한지": 1608,
    "학년": 1609,
    "▁겨울": 1610,
    "▁팔": 1611,
    "▁아이템": 1612,
    "▁모습이": 1613,
    "▁배울": 1614,
    "▁최고": 1615,
    "▁했지만": 1616,
    "것도": 1617,
    "▁이동": 1618,
    "▁계좌": 1619,
    "으로부터": 1620,
    "▁진": 1621,
    "보다는": 1622,
    "▁어때요": 1623,
    "▁계정": 1624,
    "▁포함": 1625,
    "▁이름이": 1626,
    "▁치료": 1627,
    "▁정말로": 1628,
    "▁전통": 1629,
    "▁재미": 1630,
    "▁말씀해": 1631,
    "들에게": 1632,
    "▁미국에": 1633,
    "때부터": 1634,
    "▁이곳에서": 1635,
    "▁다만": 1636,
    "▁됩니까": 1637,
    "▁당장": 1638,
    "했습니다": 1639,
    "▁지내고": 1640,
    "▁정리": 1641,
    "▁고기": 1642,
    "줄": 1643,
    "▁부분은": 1644,
    "▁할머니": 1645,
    "▁50": 1646,
    "▁안녕하세요": 1647,
    "▁프랑스": 1648,
    "▁라면": 1649,
    "▁거기": 1650,
    "▁김치": 1651,
    "에서는": 1652,
    "▁공항": 1653,
    "▁일본에서": 1654,
    "▁재고": 1655,
    "▁주십시오": 1656,
    "▁입력": 1657,
    "▁되었다": 1658,
    "이란": 1659,
    "릴": 1660,
    "▁못해요": 1661,
    "▁상황에": 1662,
    "▁사이에": 1663,
    "수록": 1664,
    "▁오전": 1665,
    "▁않는다": 1666,
    "▁되어야": 1667,
    "▁꽤": 1668,
    "▁자전거": 1669,
    "▁있었던": 1670,
    "▁대한민국": 1671,
    "한다면": 1672,
    "들": 1673,
    "▁사건": 1674,
    "▁여유": 1675,
    "▁휴식": 1676,
    "▁대회": 1677,
    "▁하늘": 1678,
    "▁뭔가": 1679,
    "▁이후에": 1680,
    "▁써": 1681,
    "▁예전": 1682,
    "▁우유": 1683,
    "▁니": 1684,
    "▁원인": 1685,
    "▁힘이": 1686,
    "곤": 1687,
    "▁너도": 1688,
    "▁목적": 1689,
    "▁자재": 1690,
    "▁급": 1691,
    "▁예상": 1692,
    "▁김": 1693,
    "▁재미있는": 1694,
    "▁행복하게": 1695,
    "▁조": 1696,
    "▁사용해": 1697,
    "▁도착할": 1698,
    "▁구성": 1699,
    "운": 1700,
    "▁외국": 1701,
    "▁훨씬": 1702,
    "▁모릅니다": 1703,
    "▁이용해": 1704,
    "▁자신감": 1705,
    "▁예쁜": 1706,
    "▁거라고": 1707,
    "▁이해해": 1708,
    "▁조용": 1709,
    "▁식당": 1710,
    "▁비즈니스": 1711,
    "▁관련하여": 1712,
    "▁연": 1713,
    "▁지금부터": 1714,
    "▁나온": 1715,
    "▁물이": 1716,
    "▁잔": 1717,
    "▁생활을": 1718,
    "▁호텔에": 1719,
    "▁깊은": 1720,
    "▁않나요": 1721,
    "으로써": 1722,
    "▁증가": 1723,
    "▁협의": 1724,
    "▁이유로": 1725,
    "▁무": 1726,
    "▁여기는": 1727,
    "▁내용이": 1728,
    "▁가족은": 1729,
    "▁학습": 1730,
    "▁미안해": 1731,
    "▁되어서": 1732,
    "종": 1733,
    "▁것들이": 1734,
    "니다": 1735,
    "▁있으니까": 1736,
    "원": 1737,
    "▁아들": 1738,
    "▁40": 1739,
    "▁배송비": 1740,
    "▁있으세요": 1741,
    "▁반품": 1742,
    "▁여자친구": 1743,
    "▁없으면": 1744,
    "▁무엇인가요": 1745,
    "▁제외": 1746,
    "▁맛이": 1747,
    "스": 1748,
    "▁제한": 1749,
    "▁이곳": 1750,
    "▁거기에": 1751,
    "▁답": 1752,
    "▁제발": 1753,
    "린": 1754,
    "▁몰라요": 1755,
    "▁초콜릿": 1756,
    "▁알아요": 1757,
    "▁되는지": 1758,
    "▁항공": 1759,
    "▁앞": 1760,
    "▁화": 1761,
    "▁방에": 1762,
    "▁절차": 1763,
    "▁조직": 1764,
    "▁할게요": 1765,
    "▁소": 1766,
    "▁흥미": 1767,
    "▁싫어": 1768,
    "▁치킨": 1769,
    "▁담": 1770,
    "다가": 1771,
    "▁두개": 1772,
    "▁표현": 1773,
    "▁측정": 1774,
    "▁넣고": 1775,
    "▁탈": 1776,
    "▁중에서": 1777,
    "▁보고서": 1778,
    "▁주변에": 1779,
    "/": 1780,
    "▁부분에": 1781,
    "▁스": 1782,
    "세": 1783,
    "대체": 1784,
    "▁물건이": 1785,
    "▁받아야": 1786,
    "▁연기": 1787,
    "▁지난번": 1788,
    "▁공": 1789,
    "▁해외": 1790,
    "▁보지": 1791,
    "▁채": 1792,
    "하는것이": 1793,
    "\"": 1794,
    "▁대학에": 1795,
    "▁언제쯤": 1796,
    "▁방학": 1797,
    "▁주요": 1798,
    "▁다니고": 1799,
    "▁특별": 1800,
    "▁위하여": 1801,
    "▁분들": 1802,
    "▁부족한": 1803,
    "▁콘텐츠": 1804,
    "▁소녀": 1805,
    "▁차가": 1806,
    "▁속에서": 1807,
    "▁것인지": 1808,
    "▁별도": 1809,
    "▁바란다": 1810,
    "▁근데": 1811,
    "▁몇가지": 1812,
    "▁코드": 1813,
    "▁운송": 1814,
    "▁그것에": 1815,
    "▁서울에서": 1816,
    "▁하였습니다": 1817,
    "▁독일": 1818,
    "▁그날": 1819,
    "겐": 1820,
    "▁보이지": 1821,
    "사": 1822,
    "▁자동": 1823,
    "▁강": 1824,
    "▁자세히": 1825,
    "▁사람입니다": 1826,
    "▁기록": 1827,
    "하실": 1828,
    "▁지불": 1829,
    "▁중심": 1830,
    "간": 1831,
    "▁이슈": 1832,
    "▁건지": 1833,
    "▁몰라": 1834,
    "▁할때": 1835,
    "!": 1836,
    "▁없나요": 1837,
    "▁않지만": 1838,
    "▁동시에": 1839,
    "▁싶어서": 1840,
    "▁만들기": 1841,
    "▁오랜": 1842,
    "▁강의": 1843,
    "▁보내는": 1844,
    "▁참석": 1845,
    "▁관해서": 1846,
    "▁이벤트": 1847,
    "▁당연": 1848,
    "▁테니": 1849,
    "▁이용하여": 1850,
    "▁시에": 1851,
    "▁만나기": 1852,
    "▁참고": 1853,
    "▁강한": 1854,
    "▁계산": 1855,
    "▁한국인": 1856,
    "▁없다는": 1857,
    "▁입금": 1858,
    "▁작업이": 1859,
    "▁같아서": 1860,
    "▁맞지": 1861,
    "▁과거": 1862,
    "▁끝나고": 1863,
    "▁체크": 1864,
    "▁촬영": 1865,
    "때": 1866,
    "▁소통": 1867,
    "으며": 1868,
    "▁따른": 1869,
    "▁당신께": 1870,
    "▁문자": 1871,
    "▁것처럼": 1872,
    "▁편": 1873,
    "▁그렇기": 1874,
    "▁홍보": 1875,
    "▁혹": 1876,
    "▁치": 1877,
    "권": 1878,
    "▁중국어": 1879,
    "▁들어가": 1880,
    "라면": 1881,
    "▁곳으로": 1882,
    "▁코": 1883,
    "▁봐야": 1884,
    "▁빵": 1885,
    "수": 1886,
    "▁휴대폰": 1887,
    "런": 1888,
    "▁심": 1889,
    "▁투자": 1890,
    "▁성적": 1891,
    "▁보냈습니다": 1892,
    "1": 1893,
    "▁주시겠습니까": 1894,
    "▁수학": 1895,
    "▁외": 1896,
    "▁그곳": 1897,
    "▁받기": 1898,
    "▁평가": 1899,
    "▁조사": 1900,
    "▁문장": 1901,
    "▁봤어": 1902,
    "▁먹습니다": 1903,
    "▁갔어": 1904,
    "▁보관": 1905,
    "▁이해할": 1906,
    "▁방송": 1907,
    "▁인터뷰": 1908,
    "건가요": 1909,
    "코": 1910,
    "▁기본": 1911,
    "▁감": 1912,
    "▁벌": 1913,
    "▁비자": 1914,
    "▁차량": 1915,
    "▁환자": 1916,
    "▁먹으면": 1917,
    "형": 1918,
    "▁추천": 1919,
    "▁당": 1920,
    "죠": 1921,
    "▁다이어트": 1922,
    "▁해줄": 1923,
    "▁심지어": 1924,
    "든": 1925,
    "▁추천해": 1926,
    "▁중요합니다": 1927,
    "▁패션": 1928,
    "▁저번": 1929,
    "▁전까지": 1930,
    "▁사무실": 1931,
    "-": 1932,
    "▁대략": 1933,
    "▁내부": 1934,
    "▁도전": 1935,
    "▁짧은": 1936,
    "▁우": 1937,
    "적": 1938,
    "▁피아노": 1939,
    "▁있었으면": 1940,
    "▁가능해요": 1941,
    "▁재밌": 1942,
    "▁부담": 1943,
    "시면": 1944,
    "져": 1945,
    "▁친한": 1946,
    "▁들어요": 1947,
    "▁계획이": 1948,
    "▁번째로": 1949,
    "▁필요해": 1950,
    "▁수업에": 1951,
    "▁작년에": 1952,
    "▁하거나": 1953,
    "▁모": 1954,
    "▁케이스": 1955,
    "▁통": 1956,
    "▁가족이": 1957,
    "▁적용": 1958,
    "▁주의": 1959,
    "▁고객이": 1960,
    "▁올려": 1961,
    "▁마무리": 1962,
    "▁떨어져": 1963,
    "▁과정을": 1964,
    "▁전문": 1965,
    "이기": 1966,
    "▁공유": 1967,
    "▁호텔에서": 1968,
    "▁작성": 1969,
    "▁줘": 1970,
    "▁혼자서": 1971,
    "▁이탈리아": 1972,
    "▁배가": 1973,
    "▁카페": 1974,
    "▁데이트": 1975,
    "▁목요일에": 1976,
    "주길": 1977,
    "년간": 1978,
    "▁시켜": 1979,
    "▁그럴": 1980,
    "▁되길": 1981,
    "▁너무나": 1982,
    "▁낼": 1983,
    "▁식사를": 1984,
    "하는데": 1985,
    "▁수업이": 1986,
    "▁같다": 1987,
    "▁고맙습니다": 1988,
    "▁기타": 1989,
    "▁바탕으로": 1990,
    "▁용기": 1991,
    "▁봅니다": 1992,
    "▁지나": 1993,
    "▁인증": 1994,
    "▁않는다면": 1995,
    "▁체크인": 1996,
    "▁동일한": 1997,
    "▁고객에게": 1998,
    "▁준비해": 1999,
    "▁음료": 2000,
    "▁이용할": 2001,
    "▁관광": 2002,
    "▁말하고": 2003,
    "▁공부하고": 2004,
    "▁치즈": 2005,
    "▁그동안": 2006,
    "기도": 2007,
    "▁기차": 2008,
    "▁한가지": 2009,
    "▁않았다": 2010,
    "▁었": 2011,
    "▁일정이": 2012,
    "▁겁니까": 2013,
    "▁제거": 2014,
    "▁편하게": 2015,
    "▁됐어요": 2016,
    "성": 2017,
    "▁주었습니다": 2018,
    "▁활용": 2019,
    "▁안에서": 2020,
    "▁중학교": 2021,
    "▁수가": 2022,
    "개를": 2023,
    "▁애": 2024,
    "▁잠깐": 2025,
    "▁예술": 2026,
    "▁즐겨": 2027,
    "네": 2028,
    "▁박": 2029,
    "▁아이들이": 2030,
    "▁국제": 2031,
    "▁나눠": 2032,
    "▁목록": 2033,
    "▁라인": 2034,
    "▁하길": 2035,
    "▁파": 2036,
    "▁읽어": 2037,
    "▁빛": 2038,
    "▁수술": 2039,
    "▁링크": 2040,
    "▁불구하고": 2041,
    "▁다릅니다": 2042,
    "▁비슷한": 2043,
    "▁생각했습니다": 2044,
    "▁어린이": 2045,
    "다는": 2046,
    "▁세상에": 2047,
    "▁동영상": 2048,
    "▁봐요": 2049,
    "▁경제": 2050,
    "▁언젠가": 2051,
    "▁멀리": 2052,
    "▁전쟁": 2053,
    "▁사회적": 2054,
    "내": 2055,
    "▁글로벌": 2056,
    "▁숙소": 2057,
    "▁도면": 2058,
    "▁수리": 2059,
    "▁희망": 2060,
    "▁표시": 2061,
    "▁반복": 2062,
    "라서": 2063,
    "여": 2064,
    "▁13": 2065,
    "▁수입": 2066,
    "식": 2067,
    "▁그것": 2068,
    "▁영원히": 2069,
    "▁교수님": 2070,
    "되는": 2071,
    "▁단계": 2072,
    "▁풀": 2073,
    "▁규정": 2074,
    "▁좋다고": 2075,
    "▁오기": 2076,
    "▁결": 2077,
    "▁참조": 2078,
    "▁사랑해": 2079,
    "▁골프": 2080,
    "많은": 2081,
    "▁친구에게": 2082,
    "▁상담": 2083,
    "▁상관": 2084,
    "▁즉시": 2085,
    "▁장면": 2086,
    "▁원하지": 2087,
    "▁끝까지": 2088,
    "▁아이디어": 2089,
    "일부터": 2090,
    "▁25": 2091,
    "▁친구랑": 2092,
    "▁시대": 2093,
    "▁오전에": 2094,
    "▁연락해": 2095,
    "▁귀": 2096,
    "▁밖": 2097,
    "▁국내": 2098,
    "▁목소리": 2099,
    "▁위로": 2100,
    "▁없지만": 2101,
    "▁제공합니다": 2102,
    "▁거죠": 2103,
    "만큼": 2104,
    "▁것입니까": 2105,
    "▁공기": 2106,
    "▁페이지": 2107,
    "▁비디오": 2108,
    "이지만": 2109,
    "▁18": 2110,
    "▁속도": 2111,
    "▁대표": 2112,
    "▁없으니": 2113,
    "▁보겠습니다": 2114,
    "▁록": 2115,
    "적이": 2116,
    "▁피자": 2117,
    "▁성과": 2118,
    "▁단체": 2119,
    "▁짐": 2120,
    "▁버전": 2121,
    "▁계획입니다": 2122,
    "▁남": 2123,
    "▁17": 2124,
    "▁제공": 2125,
    "▁나만": 2126,
    "▁좋겠다": 2127,
    "▁사장님": 2128,
    "▁반응": 2129,
    "▁사용하여": 2130,
    "▁그들에게": 2131,
    "▁실력": 2132,
    "▁가족과": 2133,
    "▁시기": 2134,
    "▁네트워크": 2135,
    "▁이번주": 2136,
    "▁소스": 2137,
    "더니": 2138,
    "자가": 2139,
    "▁\"": 2140,
    "▁여부": 2141,
    "▁달러": 2142,
    "▁힘을": 2143,
    "▁듣는": 2144,
    "▁일할": 2145,
    "▁종이": 2146,
    "▁무엇인지": 2147,
    "▁맞나요": 2148,
    "▁다르게": 2149,
    "시까지": 2150,
    "▁중이야": 2151,
    "▁뉴욕": 2152,
    "▁힘들어": 2153,
    "었으면": 2154,
    "▁작년": 2155,
    "▁궁금한": 2156,
    "▁세금": 2157,
    "날": 2158,
    "장": 2159,
    "▁행복해": 2160,
    "▁알지": 2161,
    "▁실": 2162,
    "▁배달": 2163,
    "▁방식으로": 2164,
    "▁입장": 2165,
    "산": 2166,
    "▁에너지": 2167,
    "▁체험": 2168,
    "▁생긴": 2169,
    "▁보다": 2170,
    "▁출근": 2171,
    "▁목요일": 2172,
    "▁본인": 2173,
    "▁딱": 2174,
    "▁카카오": 2175,
    "▁보냈어요": 2176,
    "▁힘들어요": 2177,
    "▁톡": 2178,
    "겠습니다": 2179,
    "▁진정한": 2180,
    "▁대체": 2181,
    "▁작가": 2182,
    "▁요소": 2183,
    "▁그것들": 2184,
    "▁수출": 2185,
    "▁입학": 2186,
    "▁동생": 2187,
    "▁편지": 2188,
    "▁그러니": 2189,
    "▁먹기": 2190,
    "▁들었어": 2191,
    "▁만듭니다": 2192,
    "▁무언가": 2193,
    "▁때문이야": 2194,
    "▁상대": 2195,
    "▁냄새": 2196,
    "▁금": 2197,
    "▁가정": 2198,
    "▁간단한": 2199,
    "▁자리에": 2200,
    "▁소식을": 2201,
    "▁이용해서": 2202,
    "▁돌": 2203,
    "▁부모님이": 2204,
    "주시기": 2205,
    "▁어디로": 2206,
    "년에": 2207,
    "▁가자": 2208,
    "▁되었어": 2209,
    "부": 2210,
    "▁매력": 2211,
    "▁믿고": 2212,
    "▁뿐이에요": 2213,
    "▁만족": 2214,
    "▁누구나": 2215,
    "▁말하지": 2216,
    "▁빠져": 2217,
    "▁과정": 2218,
    "▁취업": 2219,
    "▁초": 2220,
    "▁정의": 2221,
    "▁화장품": 2222,
    "▁가능성": 2223,
    "▁지속": 2224,
    "▁수요일": 2225,
    "▁돌아가": 2226,
    "▁돌아": 2227,
    "▁침대": 2228,
    "이라면": 2229,
    "▁21": 2230,
    "▁단점": 2231,
    "▁했으면": 2232,
    "▁넘": 2233,
    "▁놀": 2234,
    "▁하실": 2235,
    "▁옆": 2236,
    "하고자": 2237,
    "▁인쇄": 2238,
    "되면": 2239,
    "▁보호": 2240,
    "▁들을": 2241,
    "줘서": 2242,
    "▁자체": 2243,
    "▁특성": 2244,
    "▁연락처": 2245,
    "▁것과": 2246,
    "▁생각엔": 2247,
    "요청하신": 2248,
    "▁산업": 2249,
    "▁나라에서": 2250,
    "▁실험": 2251,
    "▁끼": 2252,
    "▁정신": 2253,
    "▁잠이": 2254,
    "▁기관": 2255,
    "▁싸": 2256,
    "▁점은": 2257,
    "▁과일": 2258,
    "▁오류": 2259,
    "▁알려줘": 2260,
    "▁쓴": 2261,
    "▁경쟁": 2262,
    "▁제목": 2263,
    "▁거짓말": 2264,
    "▁지구": 2265,
    "▁어린": 2266,
    "▁바꿀": 2267,
    "▁후회": 2268,
    "▁건강한": 2269,
    "▁특징": 2270,
    "▁그곳에서": 2271,
    "▁시작했습니다": 2272,
    "▁평소": 2273,
    "▁절대로": 2274,
    "당": 2275,
    "▁와인": 2276,
    "▁쉬는": 2277,
    "▁연장": 2278,
    "▁놓고": 2279,
    "▁검색": 2280,
    "▁거라": 2281,
    "▁s": 2282,
    "▁구조": 2283,
    "▁빌려": 2284,
    "▁의견": 2285,
    "▁가져다": 2286,
    "▁답장": 2287,
    "▁듯": 2288,
    "▁부모": 2289,
    "▁쪽": 2290,
    "치": 2291,
    "▁줘야": 2292,
    "이면": 2293,
    "▁먹었습니다": 2294,
    "▁가능하다면": 2295,
    "▁생각했어요": 2296,
    "▁기반": 2297,
    "함을": 2298,
    "▁당신들": 2299,
    "▁조절": 2300,
    "▁드린": 2301,
    "▁감동": 2302,
    "▁그룹": 2303,
    "▁자격증": 2304,
    "▁이미지를": 2305,
    "▁남겨": 2306,
    "네요": 2307,
    "▁북한": 2308,
    "▁상황에서": 2309,
    "▁감사해요": 2310,
    "▁일입니다": 2311,
    "▁되었고": 2312,
    "▁봉사": 2313,
    "나요": 2314,
    "▁좋게": 2315,
    "▁기준으로": 2316,
    "▁출발": 2317,
    "▁캐릭터": 2318,
    "비": 2319,
    "▁피드백": 2320,
    "▁출고": 2321,
    "▁방법으로": 2322,
    "▁잘하는": 2323,
    "▁있기를": 2324,
    "▁학기": 2325,
    "▁레스토랑": 2326,
    "▁오빠": 2327,
    "▁된다고": 2328,
    "▁맛있게": 2329,
    "▁친": 2330,
    "▁23": 2331,
    "▁조정": 2332,
    "▁감정을": 2333,
    "▁케이크": 2334,
    "▁할까요": 2335,
    "하시면": 2336,
    "▁청구": 2337,
    "▁시계": 2338,
    "▁몸에": 2339,
    "▁면접": 2340,
    "▁피부를": 2341,
    "▁세트": 2342,
    "▁시절": 2343,
    "▁조언": 2344,
    "▁불러": 2345,
    "▁매장": 2346,
    "▁앉아": 2347,
    "▁실패": 2348,
    "▁수영": 2349,
    "▁공항에": 2350,
    "▁당사": 2351,
    "▁평소에": 2352,
    "▁딸이": 2353,
    "▁정확하게": 2354,
    "▁가세요": 2355,
    "▁오해": 2356,
    "▁경우에는": 2357,
    "▁같은데": 2358,
    "▁충분한": 2359,
    "▁가져": 2360,
    "▁각자": 2361,
    "로운": 2362,
    "▁증명서": 2363,
    "▁떠나": 2364,
    "▁전기": 2365,
    "▁동아리": 2366,
    "▁시도": 2367,
    "▁것이고": 2368,
    "▁설계": 2369,
    "▁영업": 2370,
    "하거나": 2371,
    "▁학생이": 2372,
    "▁좋아하고": 2373,
    "▁같네요": 2374,
    "▁먹으러": 2375,
    "▁훌륭한": 2376,
    "▁수행": 2377,
    "▁힘": 2378,
    "중에서": 2379,
    "▁납니다": 2380,
    "▁말합니다": 2381,
    "▁하네요": 2382,
    "▁생각에는": 2383,
    "▁사람이에요": 2384,
    "▁보여요": 2385,
    "▁문제로": 2386,
    "▁일본에": 2387,
    "▁직원이": 2388,
    "▁첨부파일": 2389,
    "▁거니": 2390,
    "▁지난주에": 2391,
    "▁시설": 2392,
    "▁여": 2393,
    "▁배송이": 2394,
    "▁바이어": 2395,
    "▁그만": 2396,
    "▁논의": 2397,
    "▁한달": 2398,
    "▁가득": 2399,
    "▁교환": 2400,
    "▁신뢰": 2401,
    "▁똑같은": 2402,
    "▁오늘부터": 2403,
    "▁답장을": 2404,
    "▁행": 2405,
    "▁명이": 2406,
    "▁매운": 2407,
    "▁비교": 2408,
    "▁적응": 2409,
    "지는": 2410,
    "▁잡지": 2411,
    "▁상세": 2412,
    "▁아파트": 2413,
    "▁저희에게": 2414,
    "▁200": 2415,
    "▁손님": 2416,
    "▁집이": 2417,
    "▁원단": 2418,
    "▁타입": 2419,
    "▁할까": 2420,
    "▁열리": 2421,
    "▁공항에서": 2422,
    "▁제공해": 2423,
    "▁모자": 2424,
    "▁나은": 2425,
    "▁열정": 2426,
    "▁바래": 2427,
    "▁없었어": 2428,
    "▁2016": 2429,
    "▁있나": 2430,
    "▁심각한": 2431,
    "▁유리": 2432,
    "▁나올": 2433,
    "▁간단": 2434,
    "▁그리": 2435,
    "▁봤습니다": 2436,
    "▁기능이": 2437,
    "▁바람": 2438,
    "▁주소로": 2439,
    "▁공부할": 2440,
    "▁고려": 2441,
    "▁16": 2442,
    "▁정책": 2443,
    "▁대학교에": 2444,
    "▁줄게요": 2445,
    "▁범죄": 2446,
    "▁왼쪽": 2447,
    "▁않다": 2448,
    "▁찾는": 2449,
    "▁될까": 2450,
    "▁체크아웃": 2451,
    "▁우산": 2452,
    "▁담당": 2453,
    "▁서버": 2454,
    "▁컨테이너": 2455,
    "박": 2456,
    "▁상당히": 2457,
    "울": 2458,
    "▁신문": 2459,
    "한번": 2460,
    "▁유일": 2461,
    "▁주시고": 2462,
    "주시면": 2463,
    "▁고객들": 2464,
    "▁부족": 2465,
    "▁채팅": 2466,
    "▁가려고": 2467,
    "▁오픈": 2468,
    "▁여동생": 2469,
    "▁견적서": 2470,
    "▁아들이": 2471,
    "번째": 2472,
    "▁자는": 2473,
    "▁사정": 2474,
    "하세요": 2475,
    "▁근처": 2476,
    "▁단순": 2477,
    "▁소비자": 2478,
    "▁기준": 2479,
    "▁의무": 2480,
    "▁라벨": 2481,
    "▁일상": 2482,
    "함": 2483,
    "▁수수료": 2484,
    "▁꾸준히": 2485,
    "▁중요해요": 2486,
    "▁싫어요": 2487,
    "▁시작했어요": 2488,
    "▁귀하": 2489,
    "▁깨끗": 2490,
    "대한": 2491,
    "▁합격": 2492,
    "▁향": 2493,
    "▁의자": 2494,
    "▁마을": 2495,
    "▁얘기해": 2496,
    "▁생각할": 2497,
    "▁시험이": 2498,
    "▁재미있": 2499,
    "▁낮은": 2500,
    "▁방지": 2501,
    "▁27": 2502,
    "▁일이에요": 2503,
    "▁발라": 2504,
    "▁눈에": 2505,
    "▁다들": 2506,
    "▁상상": 2507,
    "분이": 2508,
    "▁들은": 2509,
    "▁받으면": 2510,
    "▁기쁩니다": 2511,
    "▁현금": 2512,
    "▁평균": 2513,
    "▁말했습니다": 2514,
    "▁바지": 2515,
    "▁삼": 2516,
    "어서": 2517,
    "▁진실": 2518,
    "난": 2519,
    "▁과정에서": 2520,
    "▁적당": 2521,
    "▁구매할": 2522,
    "▁번에": 2523,
    "▁크림": 2524,
    "▁온도": 2525,
    "▁차례": 2526,
    "▁바쁜": 2527,
    "있습니다": 2528,
    "▁아이디": 2529,
    "▁있을지": 2530,
    "▁발견": 2531,
    "▁코스": 2532,
    "▁걸어": 2533,
    "▁화장실": 2534,
    "▁내려": 2535,
    "▁연극": 2536,
    "▁땅": 2537,
    "▁선생님은": 2538,
    "▁보자": 2539,
    "▁명의": 2540,
    "▁지켜": 2541,
    "▁채소": 2542,
    "▁조금씩": 2543,
    "▁모아": 2544,
    "▁뭐야": 2545,
    "▁도서관": 2546,
    "화": 2547,
    "▁당신한테": 2548,
    "전": 2549,
    "▁이해하기": 2550,
    "▁학교를": 2551,
    "했는데": 2552,
    "▁나가": 2553,
    "▁불량": 2554,
    "▁교체": 2555,
    "▁아이스크림": 2556,
    "▁봄": 2557,
    "▁어릴": 2558,
    "▁목": 2559,
    "▁좋아서": 2560,
    "▁상품은": 2561,
    "▁현실": 2562,
    "▁의지": 2563,
    "▁양해": 2564,
    "▁어쩔": 2565,
    "▁몇몇": 2566,
    "▁보면서": 2567,
    "▁있죠": 2568,
    "▁대상": 2569,
    "▁선택한": 2570,
    "▁현지": 2571,
    "▁비타민": 2572,
    "분명히": 2573,
    "▁미술": 2574,
    "▁삭제": 2575,
    "▁병": 2576,
    "▁쉬운": 2577,
    "▁판매자": 2578,
    "▁형": 2579,
    "▁스티커": 2580,
    "것처럼": 2581,
    "▁이에": 2582,
    "▁발주": 2583,
    "▁모바일": 2584,
    "▁대통령": 2585,
    "▁능력이": 2586,
    "보세요": 2587,
    "▁달리": 2588,
    "었어요": 2589,
    "▁오히려": 2590,
    "▁말아요": 2591,
    "▁방문할": 2592,
    "▁아니요": 2593,
    "▁향해": 2594,
    "▁이익": 2595,
    "▁몇시에": 2596,
    "▁걱정이": 2597,
    "론": 2598,
    "▁사서": 2599,
    "▁학원": 2600,
    "▁동일": 2601,
    "▁이전": 2602,
    "들도": 2603,
    "▁이상한": 2604,
    "▁계약서": 2605,
    "▁장치": 2606,
    "▁미안합니다": 2607,
    "▁있음": 2608,
    "▁열쇠": 2609,
    "▁죽음": 2610,
    "▁조립": 2611,
    "▁보내기": 2612,
    "▁평생": 2613,
    "▁웃음": 2614,
    "셔야": 2615,
    "▁최소": 2616,
    "▁미국의": 2617,
    "▁자유롭게": 2618,
    "▁파는": 2619,
    "▁만나요": 2620,
    "▁시작할": 2621,
    "▁세부": 2622,
    "▁공부하는": 2623,
    "▁문제점": 2624,
    "▁고장": 2625,
    "▁남편이": 2626,
    "▁수량이": 2627,
    "▁먹지": 2628,
    "▁전자": 2629,
    "▁가슴": 2630,
    "▁보인다": 2631,
    "▁피부에": 2632,
    "▁먹": 2633,
    "▁찾기": 2634,
    "▁저렴한": 2635,
    "▁좋았어요": 2636,
    "시부터": 2637,
    "▁대표적인": 2638,
    "겠다고": 2639,
    "▁맞게": 2640,
    "▁이해하지": 2641,
    "▁도착한": 2642,
    "▁그렇지만": 2643,
    "▁패키지": 2644,
    "▁겨울에": 2645,
    "▁잡고": 2646,
    "▁내일까지": 2647,
    "▁언제까지": 2648,
    "▁자신": 2649,
    "▁캐나다": 2650,
    "▁마치고": 2651,
    "▁금액은": 2652,
    "▁깨": 2653,
    "▁입은": 2654,
    "▁한글": 2655,
    "▁가격으로": 2656,
    "▁보내줄": 2657,
    "▁화요일": 2658,
    "▁방향": 2659,
    "금방": 2660,
    "기로": 2661,
    "▁태도": 2662,
    "온": 2663,
    "▁세계에서": 2664,
    "세요": 2665,
    "▁필요할": 2666,
    "▁쓰지": 2667,
    "▁말에": 2668,
    "▁울": 2669,
    "▁파리": 2670,
    "▁물건은": 2671,
    "▁겪": 2672,
    "▁할게": 2673,
    "▁숫자": 2674,
    "▁독립": 2675,
    "▁과학": 2676,
    "▁드디어": 2677,
    "▁무척": 2678,
    "▁엄청난": 2679,
    "▁받았어": 2680,
    "▁궁금해요": 2681,
    "▁발달": 2682,
    "▁좋고": 2683,
    "▁합시다": 2684,
    "▁가까이": 2685,
    "▁포함되어": 2686,
    "▁머물": 2687,
    "수는": 2688,
    "다른": 2689,
    "▁진행해": 2690,
    "▁지금도": 2691,
    "▁남는": 2692,
    "▁봐도": 2693,
    "▁야구": 2694,
    "▁여러분들": 2695,
    "▁미디어": 2696,
    "여서": 2697,
    "▁티": 2698,
    "조차": 2699,
    "▁그래": 2700,
    "▁파티에": 2701,
    "려": 2702,
    "▁만남": 2703,
    "▁반영": 2704,
    "▁할아버지": 2705,
    "것에": 2706,
    "▁소개하겠습니다": 2707,
    "▁자연스럽게": 2708,
    "▁샀어요": 2709,
    "▁부탁드려요": 2710,
    "▁희망합니다": 2711,
    "▁싶었어요": 2712,
    "▁태국": 2713,
    "▁전부터": 2714,
    "▁팬": 2715,
    "▁발생하는": 2716,
    "▁보상": 2717,
    "▁재미있게": 2718,
    "▁챙겨": 2719,
    "명의": 2720,
    "▁진행하고": 2721,
    "▁접근": 2722,
    "▁가질": 2723,
    "하라고": 2724,
    "▁학원에": 2725,
    "건": 2726,
    "▁부산에": 2727,
    "▁직원들": 2728,
    "▁아니고": 2729,
    "▁페이팔": 2730,
    "▁쉬": 2731,
    "▁책상": 2732,
    "▁분명": 2733,
    "▁적은": 2734,
    "▁괜찮은": 2735,
    "▁다니는": 2736,
    "▁사진으로": 2737,
    "▁일어나": 2738,
    "▁특정": 2739,
    "▁지내": 2740,
    "▁책임": 2741,
    "▁단가": 2742,
    "주셔서": 2743,
    "▁느끼는": 2744,
    "▁무게": 2745,
    "▁손님이": 2746,
    "▁비싼": 2747,
    "매주": 2748,
    "▁로그인": 2749,
    "른": 2750,
    "▁왜냐": 2751,
    "▁대답": 2752,
    "▁상품이": 2753,
    "▁아픈": 2754,
    "▁우주": 2755,
    "▁느낌이": 2756,
    "▁사기": 2757,
    "▁기초": 2758,
    "▁비해": 2759,
    "▁주십시요": 2760,
    "▁아파서": 2761,
    "▁오고": 2762,
    "▁중국에": 2763,
    "▁인식": 2764,
    "▁사례": 2765,
    "▁생각보다": 2766,
    "는것을": 2767,
    "▁통한": 2768,
    "▁아이들에게": 2769,
    "▁상사": 2770,
    "▁신고": 2771,
    "▁가능성이": 2772,
    "▁있어도": 2773,
    "▁다녀": 2774,
    "▁무리": 2775,
    "▁스테이크": 2776,
    "▁첨부한": 2777,
    "▁위에서": 2778,
    "▁어려울": 2779,
    "▁어떨까요": 2780,
    "▁마실": 2781,
    "▁실행": 2782,
    "하는것은": 2783,
    "▁뿐입니다": 2784,
    "▁대단": 2785,
    "▁보내겠습니다": 2786,
    "▁저기": 2787,
    "▁출시": 2788,
    "▁돌아오": 2789,
    "▁구매자": 2790,
    "▁외부": 2791,
    "▁제주도": 2792,
    "▁식물": 2793,
    "▁동": 2794,
    "▁도와줄": 2795,
    "▁보내주신": 2796,
    "▁전시회": 2797,
    "▁상자": 2798,
    "▁선택할": 2799,
    "▁하시는": 2800,
    "주십시오": 2801,
    "▁다음으로": 2802,
    "▁보증금": 2803,
    "▁비밀번호": 2804,
    "▁먹어요": 2805,
    "▁미래에": 2806,
    "▁룸": 2807,
    "▁어디에서": 2808,
    "들에": 2809,
    "▁감정": 2810,
    "▁공식": 2811,
    "▁공격": 2812,
    "▁쉬고": 2813,
    "▁서류가": 2814,
    "▁패턴": 2815,
    "▁거기서": 2816,
    "▁산책": 2817,
    "기가": 2818,
    "▁통관": 2819,
    "▁뜻": 2820,
    "▁나갈": 2821,
    "▁이제부터": 2822,
    "▁원본": 2823,
    "있는": 2824,
    "▁초대": 2825,
    "▁괜찮아": 2826,
    "인한": 2827,
    "▁예방": 2828,
    "어요": 2829,
    "▁걸릴": 2830,
    "▁수준": 2831,
    "▁엄청": 2832,
    "▁논문": 2833,
    "▁대기": 2834,
    "▁장르": 2835,
    "▁신규": 2836,
    "▁바빠서": 2837,
    "▁포기하지": 2838,
    "▁먹었어요": 2839,
    "▁보냈어": 2840,
    "▁걱정하지": 2841,
    "▁발생한": 2842,
    "▁그러한": 2843,
    "▁친절한": 2844,
    "▁맨": 2845,
    "▁공원": 2846,
    "▁24": 2847,
    "▁정치": 2848,
    "▁절": 2849,
    "▁배치": 2850,
    "▁기억이": 2851,
    "▁책임을": 2852,
    "▁금액이": 2853,
    "▁카카오톡": 2854,
    "▁미소": 2855,
    "칠": 2856,
    "▁픽업": 2857,
    "▁통과": 2858,
    "▁내년": 2859,
    "▁교사": 2860,
    "▁좋아해서": 2861,
    "▁제조": 2862,
    "▁교회": 2863,
    "▁가입": 2864,
    "▁기뻐": 2865,
    "▁손에": 2866,
    "▁그러니까": 2867,
    "▁묻": 2868,
    "▁와이파이": 2869,
    "▁있으신가요": 2870,
    "▁배터리": 2871,
    "▁생각하세요": 2872,
    "▁만들었습니다": 2873,
    "▁드는": 2874,
    "▁지난번에": 2875,
    "▁협조": 2876,
    "▁말했어요": 2877,
    "소": 2878,
    "▁성적이": 2879,
    "▁방해": 2880,
    "▁본적이": 2881,
    "▁급한": 2882,
    "▁양식": 2883,
    "▁남동생": 2884,
    "▁변": 2885,
    "보고": 2886,
    "▁훈련": 2887,
    "▁걸려": 2888,
    "▁그중에서": 2889,
    "▁첫째": 2890,
    "▁뉴스": 2891,
    "▁만나게": 2892,
    "▁주차": 2893,
    "▁거지": 2894,
    "▁상의": 2895,
    "▁배우는": 2896,
    "▁비밀": 2897,
    "▁때도": 2898,
    "▁종교": 2899,
    "▁방이": 2900,
    "▁자격": 2901,
    "▁닭": 2902,
    "▁차별": 2903,
    "▁밝은": 2904,
    "▁받아서": 2905,
    "▁귀여운": 2906,
    "▁노력하겠습니다": 2907,
    "▁있으시면": 2908,
    "▁내용에": 2909,
    "▁화물": 2910,
    "▁새해": 2911,
    "▁착한": 2912,
    "▁일반적으로": 2913,
    "성을": 2914,
    "▁날이에요": 2915,
    "적이고": 2916,
    "▁허락": 2917,
    "▁성분": 2918,
    "▁프로그램에": 2919,
    "▁들면": 2920,
    "▁동작": 2921,
    "▁필터": 2922,
    "▁오늘날": 2923,
    "▁죽": 2924,
    "거야": 2925,
    "▁설": 2926,
    "▁아버지는": 2927,
    "▁공장에서": 2928,
    "▁맞아": 2929,
    "▁현장": 2930,
    "▁원해": 2931,
    "▁구경": 2932,
    "▁시각": 2933,
    "▁눌러": 2934,
    "▁적절한": 2935,
    "▁수요일에": 2936,
    "▁책이": 2937,
    "▁가이드": 2938,
    "▁수밖에": 2939,
    "▁쉴": 2940,
    "▁않았으면": 2941,
    "▁메이크업": 2942,
    "▁존": 2943,
    "▁멤버": 2944,
    "▁완벽한": 2945,
    "▁봤는데": 2946,
    "▁열차": 2947,
    "음": 2948,
    "▁전달해": 2949,
    "▁청소년": 2950,
    "▁잡아": 2951,
    "▁어젯밤에": 2952,
    "▁그거": 2953,
    "▁알아야": 2954,
    "▁여권": 2955,
    "▁삼성": 2956,
    "▁말아": 2957,
    "▁그려": 2958,
    "▁돼지": 2959,
    "했으면": 2960,
    "▁졌습니다": 2961,
    "▁테이블": 2962,
    "▁반송": 2963,
    "▁돌려": 2964,
    "더라도": 2965,
    "▁싫어하는": 2966,
    "▁하시면": 2967,
    "제": 2968,
    "▁있었고": 2969,
    "▁도착하면": 2970,
    "트": 2971,
    "▁청구서": 2972,
    "▁지지": 2973,
    "드": 2974,
    "준": 2975,
    "▁드리고": 2976,
    "년이": 2977,
    "▁주문이": 2978,
    "▁하죠": 2979,
    "▁소비": 2980,
    "▁소개할": 2981,
    "▁들어갈": 2982,
    "▁펴": 2983,
    "▁것이다": 2984,
    "▁위치한": 2985,
    "▁나에게는": 2986,
    "▁친구들에게": 2987,
    "▁짜증": 2988,
    "▁것보다": 2989,
    "▁믿어": 2990,
    "▁나라에": 2991,
    "이기때문에": 2992,
    "▁얼": 2993,
    "▁다음주": 2994,
    "▁리더": 2995,
    "▁품목": 2996,
    "▁은행에서": 2997,
    "▁14": 2998,
    "▁적극적": 2999,
    "▁신속": 3000,
    "▁스키": 3001,
    "▁베트남": 3002,
    "▁아까": 3003,
    "껏": 3004,
    "▁적당량": 3005,
    "▁느끼고": 3006,
    "▁TV": 3007,
    "▁과자": 3008,
    "▁tv": 3009,
    "▁예산": 3010,
    "한다고": 3011,
    "▁숙박": 3012,
    "▁개인적으로": 3013,
    "▁엄청나": 3014,
    "▁그녀와": 3015,
    "▁계기": 3016,
    "연": 3017,
    "▁싶을": 3018,
    "▁생길": 3019,
    "별": 3020,
    "▁축하": 3021,
    "▁둘째": 3022,
    "▁좋다": 3023,
    "▁보험": 3024,
    "▁창문": 3025,
    "▁알려줄": 3026,
    "▁접": 3027,
    "▁긍정적으로": 3028,
    "▁생명": 3029,
    "▁그린": 3030,
    "▁발행": 3031,
    "▁담아": 3032,
    "▁판매하는": 3033,
    "▁실력이": 3034,
    "▁발급": 3035,
    "▁위험한": 3036,
    "▁타는": 3037,
    "▁오렌지": 3038,
    "▁먹었어": 3039,
    "▁나오지": 3040,
    "▁태권도": 3041,
    "▁뜨거운": 3042,
    "▁걸립니다": 3043,
    "▁준다": 3044,
    "▁괜찮아요": 3045,
    "▁통하여": 3046,
    "▁죽을": 3047,
    "▁오세요": 3048,
    "▁과목": 3049,
    "▁보내세요": 3050,
    "▁저번에": 3051,
    "▁보며": 3052,
    "▁박물관": 3053,
    "▁불편": 3054,
    "▁커버": 3055,
    "▁약속이": 3056,
    "▁메일에": 3057,
    "▁만일": 3058,
    "▁곡": 3059,
    "씨": 3060,
    "조": 3061,
    "▁물에": 3062,
    "▁긴장": 3063,
    "없이": 3064,
    "하다고": 3065,
    "▁도서관에": 3066,
    "▁하고자": 3067,
    "▁궁금해": 3068,
    "▁접속": 3069,
    "▁c": 3070,
    "▁사무실에": 3071,
    "▁교통": 3072,
    "본": 3073,
    "▁하나입니다": 3074,
    "▁따": 3075,
    "▁사용한": 3076,
    "▁밖에서": 3077,
    "▁동의": 3078,
    "▁든": 3079,
    "배": 3080,
    "▁느꼈습니다": 3081,
    "▁해외여행": 3082,
    "▁했기": 3083,
    "▁기뻐요": 3084,
    "▁뭐라": 3085,
    "▁업그레이드": 3086,
    "▁취": 3087,
    "▁말로": 3088,
    "▁뭐가": 3089,
    "▁받게": 3090,
    "▁제외하고": 3091,
    "▁말이야": 3092,
    "▁정상": 3093,
    "▁너가": 3094,
    "▁경영": 3095,
    "등의": 3096,
    "▁순": 3097,
    "▁환경에": 3098,
    "▁새벽": 3099,
    "▁보게": 3100,
    "▁선정": 3101,
    "되어야": 3102,
    "▁기간이": 3103,
    "▁중국에서": 3104,
    "일이": 3105,
    "▁소설": 3106,
    "▁참가": 3107,
    "▁택배": 3108,
    "▁많지": 3109,
    "▁많은것을": 3110,
    "▁농구": 3111,
    "▁‘": 3112,
    "▁듭니다": 3113,
    "▁돈으로": 3114,
    "▁년": 3115,
    "▁알았어요": 3116,
    "▁편이에요": 3117,
    "▁렌즈": 3118,
    "▁인정": 3119,
    "▁싶기": 3120,
    "▁생기면": 3121,
    "▁미치는": 3122,
    "▁손으로": 3123,
    "▁상태입니다": 3124,
    "▁선수들": 3125,
    "▁되었으면": 3126,
    "▁고통": 3127,
    "▁음": 3128,
    "▁유명": 3129,
    "▁해결할": 3130,
    "▁추": 3131,
    "표를": 3132,
    "▁길에": 3133,
    "▁우리와": 3134,
    "▁젊은": 3135,
    "▁등산": 3136,
    "▁질문에": 3137,
    "▁하자": 3138,
    "m": 3139,
    "▁군": 3140,
    "▁전략": 3141,
    "▁전화번호": 3142,
    "▁고정": 3143,
    "▁재고가": 3144,
    "▁어울리는": 3145,
    "▁정상적": 3146,
    "▁무대": 3147,
    "▁아파": 3148,
    "▁코팅": 3149,
    "▁관": 3150,
    "▁소리가": 3151,
    "▁한복": 3152,
    "▁피곤": 3153,
    "▁접수": 3154,
    "▁즉": 3155,
    "▁주문할": 3156,
    "▁빈": 3157,
    "▁깊이": 3158,
    "▁때때로": 3159,
    "▁2017": 3160,
    "▁끝난": 3161,
    "▁보내지": 3162,
    "▁노력하고": 3163,
    "▁바래요": 3164,
    "▁초등학교": 3165,
    "▁계신": 3166,
    "▁기본적인": 3167,
    "겠어요": 3168,
    "▁봅시다": 3169,
    "이라서": 3170,
    "▁임": 3171,
    "했고": 3172,
    "▁나가서": 3173,
    "▁먹어야": 3174,
    "▁거로": 3175,
    "▁드리도록": 3176,
    "▁싶지만": 3177,
    "▁질문이": 3178,
    "▁처음부터": 3179,
    "일은": 3180,
    "▁하던": 3181,
    "▁했는지": 3182,
    "d": 3183,
    "▁작동": 3184,
    "▁건강에": 3185,
    "▁대만": 3186,
    "▁S": 3187,
    "▁카": 3188,
    "▁회복": 3189,
    "▁했다고": 3190,
    "▁사진입니다": 3191,
    "▁주인공": 3192,
    "s": 3193,
    "미": 3194,
    "▁나에": 3195,
    "▁주위": 3196,
    "▁없었다": 3197,
    "▁호주": 3198,
    "▁가도": 3199,
    "▁못했어": 3200,
    "▁500": 3201,
    "▁생겼습니다": 3202,
    "▁옛날": 3203,
    "▁대비": 3204,
    "▁높습니다": 3205,
    "▁따르면": 3206,
    "▁백": 3207,
    "로써": 3208,
    "▁최신": 3209,
    "▁모임": 3210,
    "▁준비하고": 3211,
    "▁말해주세요": 3212,
    "▁피곤해서": 3213,
    "▁어렵다": 3214,
    "▁물어": 3215,
    "▁줘요": 3216,
    "쪽으로": 3217,
    "별로": 3218,
    "▁엄마와": 3219,
    "▁싶다면": 3220,
    "▁표기": 3221,
    "▁주실래요": 3222,
    "▁색깔": 3223,
    "▁회": 3224,
    "▁안됩니다": 3225,
    "▁노력할": 3226,
    "▁사이트에": 3227,
    "▁역": 3228,
    "▁전시": 3229,
    "▁다닐": 3230,
    "▁뇌": 3231,
    "▁잘해": 3232,
    "셔서": 3233,
    "▁경찰": 3234,
    "▁짓": 3235,
    "▁확인이": 3236,
    "▁일로": 3237,
    "▁왔다": 3238,
    "▁나면": 3239,
    "▁응원": 3240,
    "▁꿈이": 3241,
    "▁제품으로": 3242,
    "▁한국어로": 3243,
    "▁제공하는": 3244,
    "▁느껴": 3245,
    "▁공간이": 3246,
    "▁만나면": 3247,
    "▁위험": 3248,
    "▁확장": 3249,
    "▁높": 3250,
    "▁해결하기": 3251,
    "▁누나": 3252,
    "▁손가락": 3253,
    "▁이혼": 3254,
    "▁회사와": 3255,
    "▁믿을": 3256,
    "▁땐": 3257,
    "▁인원": 3258,
    "▁홈페이지": 3259,
    "▁화면": 3260,
    "▁넓은": 3261,
    "▁습관": 3262,
    "▁여자친구가": 3263,
    "▁준비한": 3264,
    "▁맞는지": 3265,
    "▁다운로드": 3266,
    "▁끝나": 3267,
    "▁없기": 3268,
    "▁새롭": 3269,
    "▁플레이": 3270,
    "▁파트너": 3271,
    "▁파악": 3272,
    "▁환불해": 3273,
    "▁너희들": 3274,
    "졌습니다": 3275,
    "▁제품과": 3276,
    "▁그들과": 3277,
    "▁싶었어": 3278,
    "▁살기": 3279,
    "▁되니": 3280,
    "▁알았어": 3281,
    "▁케이블": 3282,
    "▁많고": 3283,
    "▁모르겠습니다": 3284,
    "▁가격에": 3285,
    "▁사랑이": 3286,
    "▁끊임없": 3287,
    "▁아시아": 3288,
    "▁줄래": 3289,
    "▁기름": 3290,
    "▁점검": 3291,
    "▁디": 3292,
    "▁지키": 3293,
    "▁남성": 3294,
    "▁댓글": 3295,
    "▁반대": 3296,
    "▁곳입니다": 3297,
    "함으로써": 3298,
    "▁찾으": 3299,
    "▁방법입니다": 3300,
    "▁샘플이": 3301,
    "▁똑같": 3302,
    "▁지갑": 3303,
    "▁상대방": 3304,
    "▁열어": 3305,
    "▁먹은": 3306,
    "▁받으": 3307,
    "▁맡은": 3308,
    "▁지낼": 3309,
    "▁자라": 3310,
    "▁완성": 3311,
    "▁크": 3312,
    "▁출하": 3313,
    "▁대신에": 3314,
    "든지": 3315,
    "▁프로그램은": 3316,
    "▁입을": 3317,
    "▁웹사이트": 3318,
    "▁확인을": 3319,
    "▁마사지": 3320,
    "▁완전": 3321,
    "▁벽": 3322,
    "▁러시아": 3323,
    "▁부드러운": 3324,
    "▁어쨌든": 3325,
    "▁뛰어난": 3326,
    "▁가치를": 3327,
    "▁100%": 3328,
    "▁우연히": 3329,
    "▁감각": 3330,
    "▁믿음": 3331,
    "▁이상이": 3332,
    "▁빼": 3333,
    "▁홍콩": 3334,
    "▁콘서트": 3335,
    "▁달라": 3336,
    "▁유학": 3337,
    "▁매니저": 3338,
    "▁먼": 3339,
    "▁것이라": 3340,
    "▁돌아올": 3341,
    "▁기도": 3342,
    "▁가지게": 3343,
    "▁날입니다": 3344,
    "▁인구": 3345,
    "▁어려워": 3346,
    "▁님": 3347,
    "▁두번째로": 3348,
    "▁일어나는": 3349,
    "▁시청": 3350,
    "▁복": 3351,
    "▁해수욕장": 3352,
    "▁가족을": 3353,
    "▁분야에서": 3354,
    "▁지고": 3355,
    "▁필리핀에서": 3356,
    "▁이루": 3357,
    "▁지정": 3358,
    "장을": 3359,
    "▁죄송해요": 3360,
    "▁없네요": 3361,
    "▁정해진": 3362,
    "▁것인가": 3363,
    "▁달콤한": 3364,
    "▁모두에게": 3365,
    "▁싶은데요": 3366,
    "▁하는것이": 3367,
    "▁사랑합니다": 3368,
    "▁대금": 3369,
    "▁학생입니다": 3370,
    "▁많다": 3371,
    "▁의도": 3372,
    "▁지난주": 3373,
    "▁춤을": 3374,
    "▁방향으로": 3375,
    "▁사전": 3376,
    "▁칠": 3377,
    "▁동료": 3378,
    "해도": 3379,
    "▁되기를": 3380,
    "▁덜": 3381,
    "▁아마존": 3382,
    "▁하다가": 3383,
    "▁승리": 3384,
    "▁타면": 3385,
    "▁양념": 3386,
    "▁블랙": 3387,
    "▁좋았습니다": 3388,
    "▁믿습니다": 3389,
    "▁메세지": 3390,
    "▁어쩌면": 3391,
    "▁혜택": 3392,
    "▁몰": 3393,
    "▁만났어요": 3394,
    "▁나옵니다": 3395,
    "▁살짝": 3396,
    "▁성능": 3397,
    "▁추천합니다": 3398,
    "▁됐어": 3399,
    "▁부드럽게": 3400,
    "▁바닥에": 3401,
    "▁끝": 3402,
    "▁종": 3403,
    "▁구분": 3404,
    "▁기다려야": 3405,
    "▁부서": 3406,
    "▁사랑은": 3407,
    "▁만들어서": 3408,
    "▁방법에": 3409,
    "같이": 3410,
    "사를": 3411,
    "바른": 3412,
    "▁포함한": 3413,
    "▁딸기": 3414,
    "▁그에": 3415,
    "▁신용카드": 3416,
    "▁먹방": 3417,
    "▁영": 3418,
    "▁노력해": 3419,
    "▁행위": 3420,
    "▁자원": 3421,
    "▁확정": 3422,
    "▁우체국": 3423,
    "▁웃": 3424,
    "에서도": 3425,
    "이자": 3426,
    "▁C": 3427,
    "▁글자": 3428,
    "▁배운": 3429,
    "▁캠핑": 3430,
    "▁문구": 3431,
    "▁이틀": 3432,
    "▁차에": 3433,
    "▁가운데": 3434,
    "▁야채": 3435,
    "▁뒤로": 3436,
    "▁설탕": 3437,
    "▁내일부터": 3438,
    "▁권": 3439,
    "▁읽는": 3440,
    "▁바라며": 3441,
    "▁m": 3442,
    "인가요": 3443,
    "▁기쁨": 3444,
    "하셔야": 3445,
    "▁계란": 3446,
    "▁읽을": 3447,
    "▁아래에": 3448,
    "정된": 3449,
    "▁부인": 3450,
    "▁사진에": 3451,
    "▁사항은": 3452,
    "▁달려": 3453,
    "▁계절": 3454,
    "살이": 3455,
    "▁월급": 3456,
    "▁나오면": 3457,
    "▁따뜻하": 3458,
    "▁예쁘": 3459,
    "▁일기": 3460,
    "▁다음번에": 3461,
    "▁진로": 3462,
    "▁좋아할": 3463,
    "▁품": 3464,
    "▁너무나도": 3465,
    "했다고": 3466,
    "▁일들": 3467,
    "▁디자인이": 3468,
    "▁공사": 3469,
    "▁아름다움": 3470,
    "▁얻기": 3471,
    "▁통역": 3472,
    "분에": 3473,
    "▁팀이": 3474,
    "▁레벨": 3475,
    "▁뮤지컬": 3476,
    "▁팁": 3477,
    "구": 3478,
    "▁마음으로": 3479,
    "▁어떤가요": 3480,
    "▁경치": 3481,
    "▁옷이": 3482,
    "▁아니다": 3483,
    "꺼": 3484,
    "▁마찬가지로": 3485,
    "▁않": 3486,
    "▁끝이": 3487,
    "▁현대": 3488,
    "D": 3489,
    "▁골": 3490,
    "▁토": 3491,
    "법": 3492,
    "힌": 3493,
    "안": 3494,
    "▁증": 3495,
    "▁이른": 3496,
    "▁가게에": 3497,
    "▁은행에": 3498,
    "▁건축": 3499,
    "▁상승": 3500,
    "였습니다": 3501,
    "▁마시는": 3502,
    "4": 3503,
    "▁연락할": 3504,
    "▁느끼": 3505,
    "▁값": 3506,
    "▁말도": 3507,
    "▁사용하기": 3508,
    "▁섬": 3509,
    "▁정도의": 3510,
    "개가": 3511,
    "▁오른쪽": 3512,
    "▁삶에": 3513,
    "▁근거": 3514,
    "▁모든것을": 3515,
    "금": 3516,
    "▁인재": 3517,
    "▁받": 3518,
    "▁더불어": 3519,
    "▁큽니다": 3520,
    "▁가수": 3521,
    "▁스크린": 3522,
    "▁그릇": 3523,
    "▁적합한": 3524,
    "▁키우": 3525,
    "▁같은데요": 3526,
    "▁드려요": 3527,
    "▁곳이에요": 3528,
    "▁도착해서": 3529,
    "▁싶고": 3530,
    "▁국": 3531,
    "▁가구": 3532,
    "▁통합": 3533,
    "▁왕": 3534,
    "▁축하해": 3535,
    "▁쇼": 3536,
    "▁리포트": 3537,
    "▁우리나라의": 3538,
    "▁듣기": 3539,
    "▁형식": 3540,
    "▁협상": 3541,
    "▁말해줘": 3542,
    "▁스페인": 3543,
    "로서": 3544,
    "▁드": 3545,
    "▁주문서": 3546,
    "▁기재": 3547,
    "▁빨간색": 3548,
    "▁습니": 3549,
    "▁디자이너": 3550,
    "▁함으로써": 3551,
    "▁초기": 3552,
    "▁얼음": 3553,
    "자는": 3554,
    "▁프로필": 3555,
    "▁첫번째로": 3556,
    "▁확인하여": 3557,
    "▁판": 3558,
    "▁대응": 3559,
    "▁음식입니다": 3560,
    "▁바람이": 3561,
    "▁고객님": 3562,
    "▁고향": 3563,
    "▁순수": 3564,
    "▁서명": 3565,
    "▁대중교통": 3566,
    "▁전문가": 3567,
    "▁예정": 3568,
    "▁우정": 3569,
    "▁그렇다": 3570,
    "▁자극": 3571,
    "▁낚시": 3572,
    "▁남들": 3573,
    "▁장난감": 3574,
    "▁긴급": 3575,
    "▁남녀": 3576,
    "▁무사": 3577,
    "▁예상됩니다": 3578,
    "▁원한다면": 3579,
    "▁친절": 3580,
    "▁의미가": 3581,
    "▁소주": 3582,
    "▁기본적으로": 3583,
    "▁간다면": 3584,
    "▁컵": 3585,
    "▁메인": 3586,
    "▁클럽": 3587,
    "레": 3588,
    "▁충전": 3589,
    "▁좌석": 3590,
    "▁생각하기에": 3591,
    "▁관련해서": 3592,
    "▁크고": 3593,
    "▁음식점": 3594,
    "▁중요": 3595,
    "▁일어날": 3596,
    "▁수분": 3597,
    "▁놀고": 3598,
    "▁이용한": 3599,
    "▁안내해": 3600,
    "▁결혼식": 3601,
    "분의": 3602,
    "▁보내야": 3603,
    "▁다름": 3604,
    "후": 3605,
    "한다는": 3606,
    "▁주장": 3607,
    "▁구할": 3608,
    "▁자야": 3609,
    "▁이후로": 3610,
    "▁통제": 3611,
    "억": 3612,
    "▁빠진": 3613,
    "▁무엇인가": 3614,
    "▁봤을": 3615,
    "▁관광지": 3616,
    "▁곁에": 3617,
    "▁느낍니다": 3618,
    "▁전화해": 3619,
    "▁아니지만": 3620,
    "▁당신만": 3621,
    "쪽에서": 3622,
    "▁물고기": 3623,
    "▁허리": 3624,
    "▁규모": 3625,
    "▁번역기": 3626,
    "▁의심": 3627,
    "▁경": 3628,
    "▁범위": 3629,
    "▁근육": 3630,
    "▁행복합니다": 3631,
    "▁아닌지": 3632,
    "▁런던": 3633,
    "▁연휴": 3634,
    "▁까": 3635,
    "▁보려고": 3636,
    "▁조건이": 3637,
    "▁앞서": 3638,
    "▁다해": 3639,
    "마": 3640,
    "▁내용입니다": 3641,
    "▁전화번호를": 3642,
    "▁포": 3643,
    "▁오늘이": 3644,
    "▁맞": 3645,
    "▁준다고": 3646,
    "▁시작해": 3647,
    "▁붙여": 3648,
    "▁차이점": 3649,
    "▁연예인": 3650,
    "▁그대": 3651,
    "▁매출": 3652,
    "▁평화": 3653,
    "▁아들은": 3654,
    "▁무엇보다": 3655,
    "▁시도해": 3656,
    "▁전송": 3657,
    "▁하기로": 3658,
    "▁특허": 3659,
    "▁배경": 3660,
    "▁식품": 3661,
    "▁0": 3662,
    "▁화요일에": 3663,
    "▁추운": 3664,
    "▁가볍게": 3665,
    "▁삽니다": 3666,
    "▁기원합니다": 3667,
    "▁푹": 3668,
    "▁되겠습니다": 3669,
    "▁올린": 3670,
    "▁원활": 3671,
    "▁없는데": 3672,
    "▁추석": 3673,
    "▁프로": 3674,
    "▁사인": 3675,
    "▁식": 3676,
    "▁존경하는": 3677,
    "▁규칙": 3678,
    "▁드렸습니다": 3679,
    "▁삶이": 3680,
    "▁이웃": 3681,
    "▁장난": 3682,
    "▁컨셉": 3683,
    "▁드리": 3684,
    "▁말하기": 3685,
    "▁예약한": 3686,
    "▁요즘에": 3687,
    "▁있": 3688,
    "▁효율적": 3689,
    "▁올리": 3690,
    "▁듣": 3691,
    "인하여": 3692,
    "▁이름으로": 3693,
    "▁게스트하우스": 3694,
    "▁이와": 3695,
    "▁물질": 3696,
    "였어요": 3697,
    "▁객실": 3698,
    "▁갈아": 3699,
    "▁군대": 3700,
    "▁모여": 3701,
    "▁신제품": 3702,
    "▁부모님께": 3703,
    "▁학과": 3704,
    "일로": 3705,
    "▁감소": 3706,
    "래": 3707,
    "차를": 3708,
    "▁변화가": 3709,
    "▁권리": 3710,
    "▁반지": 3711,
    "▁금융": 3712,
    "▁얼굴이": 3713,
    "▁준비할": 3714,
    "▁기부": 3715,
    "▁많을": 3716,
    "▁아세요": 3717,
    "▁타이어": 3718,
    "▁세안": 3719,
    "▁거품": 3720,
    "▁나요": 3721,
    "▁세탁": 3722,
    "▁온다면": 3723,
    "▁없는지": 3724,
    "▁드릴까요": 3725,
    "▁등이": 3726,
    "▁잡": 3727,
    "▁이처럼": 3728,
    "▁프로젝트에": 3729,
    "▁갈게": 3730,
    "▁아프": 3731,
    "▁이따": 3732,
    "▁운영하는": 3733,
    "▁조화": 3734,
    "▁참여할": 3735,
    "▁간식": 3736,
    "▁부정적": 3737,
    "▁내고": 3738,
    "▁오일": 3739,
    "▁했": 3740,
    "▁포기": 3741,
    "▁신나": 3742,
    "▁22": 3743,
    "▁지역에": 3744,
    "▁드리는": 3745,
    "▁옵션": 3746,
    "▁답변이": 3747,
    "▁잘하고": 3748,
    "오": 3749,
    "▁파손": 3750,
    "하나요": 3751,
    "▁폭": 3752,
    "▁어려움": 3753,
    "▁인생에서": 3754,
    "▁그리워": 3755,
    "시쯤": 3756,
    "▁투어": 3757,
    "▁중간": 3758,
    "▁발음": 3759,
    "▁보냈": 3760,
    "준다면": 3761,
    "▁친환경": 3762,
    "▁떠날": 3763,
    "▁해결책": 3764,
    "▁들어서": 3765,
    "▁없도록": 3766,
    "▁쿠폰": 3767,
    "▁조선": 3768,
    "▁시작됩니다": 3769,
    "▁나왔습니다": 3770,
    "▁천연": 3771,
    "▁시작합니다": 3772,
    "층에": 3773,
    "▁위치를": 3774,
    "▁충격": 3775,
    "▁소년": 3776,
    "▁모르": 3777,
    "▁목표로": 3778,
    "▁제공할": 3779,
    "께": 3780,
    "▁아니라고": 3781,
    "▁로고": 3782,
    "▁연인": 3783,
    "▁묵": 3784,
    "때마다": 3785,
    "▁대학에서": 3786,
    "▁시스템이": 3787,
    "▁매달": 3788,
    "▁꿈에": 3789,
    "티": 3790,
    "▁파란색": 3791,
    "전에": 3792,
    "▁게스트": 3793,
    "▁송부": 3794,
    "▁이루고": 3795,
    "▁그러": 3796,
    "▁당신에": 3797,
    "는것이": 3798,
    "▁신선": 3799,
    "▁지내는": 3800,
    "▁끝내": 3801,
    "▁하기를": 3802,
    "▁실내": 3803,
    "▁사용하면": 3804,
    "▁읽": 3805,
    "▁아이폰": 3806,
    "즈": 3807,
    "낼": 3808,
    "월부터": 3809,
    "▁세번째": 3810,
    "▁생겨": 3811,
    "▁업로드": 3812,
    "▁연속": 3813,
    "▁오늘의": 3814,
    "자마자": 3815,
    "되었습니다": 3816,
    "▁믿지": 3817,
    "▁시즌": 3818,
    "▁변호사": 3819,
    "▁휴대전화": 3820,
    "▁sns": 3821,
    "▁아시나요": 3822,
    "▁기다릴": 3823,
    "▁모르겠지만": 3824,
    "▁아닌가요": 3825,
    "▁있네요": 3826,
    "▁수요": 3827,
    "▁올릴": 3828,
    "▁전체적으로": 3829,
    "▁60": 3830,
    "mm": 3831,
    "▁확인했습니다": 3832,
    "▁여기에서": 3833,
    "▁분실": 3834,
    "▁났어요": 3835,
    "▁마감": 3836,
    "▁알수": 3837,
    "▁의사소통": 3838,
    "▁나누어": 3839,
    "▁누구보다": 3840,
    "▁진행되고": 3841,
    "▁생겨서": 3842,
    "▁26": 3843,
    "▁소포": 3844,
    "▁살이": 3845,
    "▁끝에": 3846,
    "▁감상": 3847,
    "▁괜찮을": 3848,
    "▁지연": 3849,
    "▁학생들에게": 3850,
    "▁걸어서": 3851,
    "▁다음날": 3852,
    "▁사용합니다": 3853,
    "▁행운": 3854,
    "▁커플": 3855,
    "▁노": 3856,
    "▁갔을": 3857,
    "▁바쁘": 3858,
    "▁납품": 3859,
    "▁장식": 3860,
    "▁필수": 3861,
    "▁정식": 3862,
    "분은": 3863,
    "▁놀이": 3864,
    "▁목적으로": 3865,
    "▁의한": 3866,
    "▁감성": 3867,
    "▁부착": 3868,
    "▁않는다고": 3869,
    "▁몇번": 3870,
    "계": 3871,
    "▁알려져": 3872,
    "▁식당에서": 3873,
    "▁갈등": 3874,
    "▁체계": 3875,
    "▁태어나": 3876,
    "량": 3877,
    "었는데": 3878,
    "▁외출": 3879,
    "▁디저트": 3880,
    "▁것이며": 3881,
    "▁해당하는": 3882,
    "▁영양": 3883,
    "▁다음주에": 3884,
    "▁케이크를": 3885,
    "▁웹": 3886,
    "▁늦은": 3887,
    "▁노력하는": 3888,
    "▁필요하지": 3889,
    "▁여름방학": 3890,
    "▁애니메이션": 3891,
    "▁옛날에": 3892,
    "▁알다시피": 3893,
    "▁배웠습니다": 3894,
    "▁에이전트": 3895,
    "▁싶었습니다": 3896,
    "▁커다": 3897,
    "▁겠": 3898,
    "▁불가능": 3899,
    "▁용량": 3900,
    "▁기대합니다": 3901,
    "▁편안한": 3902,
    "▁사랑에": 3903,
    "▁놀라": 3904,
    "▁찬": 3905,
    "하": 3906,
    "▁생각하면": 3907,
    "▁데리": 3908,
    "만원": 3909,
    "▁안으로": 3910,
    "다니": 3911,
    "▁온다고": 3912,
    "▁높이": 3913,
    "▁상황입니다": 3914,
    "▁인터넷으로": 3915,
    "▁레": 3916,
    "▁말해요": 3917,
    "▁회원": 3918,
    "▁알려주": 3919,
    "▁가게에서": 3920,
    "▁피로": 3921,
    "▁비행": 3922,
    "▁않았을": 3923,
    "▁얼굴에": 3924,
    "▁으": 3925,
    "▁배워": 3926,
    "지고": 3927,
    "▁작성해": 3928,
    "▁스타": 3929,
    "▁꺼내": 3930,
    "초": 3931,
    "▁의식": 3932,
    "▁일어난": 3933,
    "▁예의": 3934,
    "▁저랑": 3935,
    "▁텔레비전": 3936,
    "▁하는것": 3937,
    "▁체력": 3938,
    "▁침해": 3939,
    "▁이해하고": 3940,
    "▁색상이": 3941,
    "▁맡": 3942,
    "▁급여": 3943,
    "야만": 3944,
    "▁즐기는": 3945,
    "▁지방": 3946,
    "▁아르바이트를": 3947,
    "▁윤": 3948,
    "▁동전": 3949,
    "▁올림픽": 3950,
    "▁작": 3951,
    "▁있었는데": 3952,
    "▁좋았어": 3953,
    "▁듯이": 3954,
    "▁왔을": 3955,
    "▁교복": 3956,
    "▁철저": 3957,
    "▁요새": 3958,
    "▁싶네요": 3959,
    "▁상태에서": 3960,
    "▁반죽": 3961,
    "▁중요하다고": 3962,
    "▁극": 3963,
    "▁사이에서": 3964,
    "▁사건이": 3965,
    "▁뭐예요": 3966,
    "▁증거": 3967,
    "▁강력한": 3968,
    "▁성격이": 3969,
    "▁써야": 3970,
    "▁목적지": 3971,
    "▁말이에요": 3972,
    "▁비율": 3973,
    "▁소문": 3974,
    "▁사용해요": 3975,
    "▁끝내고": 3976,
    "▁행동이": 3977,
    "▁걸로": 3978,
    "▁남지": 3979,
    "▁될지": 3980,
    "▁하겠다": 3981,
    "▁하신": 3982,
    "▁추워": 3983,
    "▁찾아서": 3984,
    "▁창고": 3985,
    "등이": 3986,
    "▁작용": 3987,
    "▁판단": 3988,
    "▁해줘": 3989,
    "▁어른": 3990,
    "▁사진들": 3991,
    "▁되서": 3992,
    "▁장애": 3993,
    "▁함께하는": 3994,
    "▁교실": 3995,
    "▁바보": 3996,
    "▁실천": 3997,
    "▁슬퍼": 3998,
    "A": 3999,
    "▁예술가": 4000,
    "▁표본": 4001,
    "▁자녀": 4002,
    "▁확보": 4003,
    "▁고객사": 4004,
    "▁k": 4005,
    "▁궁금": 4006,
    "▁가벼운": 4007,
    "▁단백질": 4008,
    "▁슬픈": 4009,
    "▁움직임": 4010,
    "▁프린트": 4011,
    "▁2015": 4012,
    "▁보고싶어요": 4013,
    "▁늦을": 4014,
    "▁도착하지": 4015,
    "▁바퀴": 4016,
    "▁사용하세요": 4017,
    "▁되세요": 4018,
    "▁없음": 4019,
    "▁갈게요": 4020,
    "▁모르겠다": 4021,
    "걸": 4022,
    "▁자서": 4023,
    "▁사회에서": 4024,
    "▁행복해요": 4025,
    "▁안되는": 4026,
    "▁지불해야": 4027,
    "▁편한": 4028,
    "▁했으니": 4029,
    "▁세계적으로": 4030,
    "것과": 4031,
    "퍼센트": 4032,
    "▁먼지": 4033,
    "▁활발": 4034,
    "▁문자를": 4035,
    "▁무엇보다도": 4036,
    "▁두번": 4037,
    "▁풀어": 4038,
    "▁채용": 4039,
    "▁떠": 4040,
    "▁부탁해": 4041,
    "▁남을": 4042,
    "▁한국은": 4043,
    "▁착용": 4044,
    "▁돼서": 4045,
    "▁경력": 4046,
    "▁직": 4047,
    "집니다": 4048,
    "▁마리": 4049,
    "▁태어난": 4050,
    "였어": 4051,
    "▁봐서": 4052,
    "▁학교가": 4053,
    "▁제품들": 4054,
    "▁필요하다": 4055,
    "▁도쿄": 4056,
    "▁지는": 4057,
    "▁컨펌": 4058,
    "▁거부": 4059,
    "▁지적": 4060,
    "▁기획": 4061,
    "▁쓰여": 4062,
    "▁꽃이": 4063,
    "▁용": 4064,
    "▁SNS": 4065,
    "▁마침내": 4066,
    "▁머리카락": 4067,
    "▁조치": 4068,
    "▁건설": 4069,
    "▁있다가": 4070,
    "▁기운": 4071,
    "▁80": 4072,
    "▁하나씩": 4073,
    "▁지역에서": 4074,
    "▁편집": 4075,
    "▁일본어": 4076,
    "▁이루어져": 4077,
    "▁영감을": 4078,
    "▁센서": 4079,
    "▁됨": 4080,
    "▁진심": 4081,
    "▁자료가": 4082,
    "▁시선": 4083,
    "▁일어나서": 4084,
    "▁차지": 4085,
    "▁심한": 4086,
    "▁발생할": 4087,
    "▁형성": 4088,
    "▁연주": 4089,
    "▁말라고": 4090,
    "▁확실한": 4091,
    "▁토론": 4092,
    "▁참고로": 4093,
    "▁이론": 4094,
    "▁애완동물": 4095,
    "▁노출": 4096,
    "▁조카": 4097,
    "▁관광객": 4098,
    "▁예약하고": 4099,
    "▁꾸": 4100,
    "▁계획에": 4101,
    "▁누": 4102,
    "▁취향": 4103,
    "▁나타나": 4104,
    "▁베": 4105,
    "번에": 4106,
    "▁생": 4107,
    "▁낮": 4108,
    "▁인지": 4109,
    "쯤": 4110,
    "입니까": 4111,
    "▁놓은": 4112,
    "▁일과": 4113,
    "▁결석": 4114,
    "▁사실은": 4115,
    "▁시트": 4116,
    "▁대중": 4117,
    "▁인생에": 4118,
    "▁설립": 4119,
    "▁죽은": 4120,
    "▁용돈": 4121,
    "▁경찰이": 4122,
    "▁항공사": 4123,
    "▁한국과": 4124,
    "▁골라": 4125,
    "이므로": 4126,
    "▁실망": 4127,
    "▁북": 4128,
    "▁cm": 4129,
    "▁스마트": 4130,
    "▁무조건": 4131,
    "▁커뮤니케이션": 4132,
    "▁안타깝게": 4133,
    "▁흐름": 4134,
    "▁꽉": 4135,
    "▁옮겨": 4136,
    "▁쿠키": 4137,
    "▁드세요": 4138,
    "▁간호사": 4139,
    "▁보일": 4140,
    "▁노력이": 4141,
    "▁에어": 4142,
    "▁소금": 4143,
    "▁뿐이야": 4144,
    "▁알아보고": 4145,
    "▁300": 4146,
    "▁투표": 4147,
    "▁건데": 4148,
    "▁세가지": 4149,
    "▁첨부합니다": 4150,
    "▁후에는": 4151,
    "▁핵심": 4152,
    "▁나가는": 4153,
    "▁사러": 4154,
    "▁허가": 4155,
    "▁출석": 4156,
    "▁주셨으면": 4157,
    "▁이용하는": 4158,
    "▁여자들": 4159,
    "▁가을": 4160,
    "▁방안": 4161,
    "▁들어간": 4162,
    "▁오염": 4163,
    "▁살아가는": 4164,
    "▁분야에": 4165,
    "▁경제적": 4166,
    "▁손상": 4167,
    "▁센터": 4168,
    "▁내용물": 4169,
    "▁이야기하고": 4170,
    "▁안정": 4171,
    "▁성인": 4172,
    "▁시장에": 4173,
    "▁한해": 4174,
    "▁제품입니다": 4175,
    "▁d": 4176,
    "▁해석": 4177,
    "▁집니다": 4178,
    "▁찍": 4179,
    "▁업무에": 4180,
    "▁보안": 4181,
    "▁쓰면": 4182,
    "▁질병": 4183,
    "▁채널": 4184,
    "▁백화점": 4185,
    "▁시스템에": 4186,
    "▁죄": 4187,
    "▁강화": 4188,
    "▁수익": 4189,
    "▁상징": 4190,
    "▁인물": 4191,
    "▁요": 4192,
    "▁얇": 4193,
    "찬": 4194,
    "▁의뢰": 4195,
    "보": 4196,
    "▁진행될": 4197,
    "▁마시": 4198,
    "▁만들어진": 4199,
    "▁영역": 4200,
    "▁마스크": 4201,
    "▁치마": 4202,
    "▁흥미로운": 4203,
    "▁조심": 4204,
    "▁땀": 4205,
    "▁못하지만": 4206,
    "▁어려워요": 4207,
    "▁블록": 4208,
    "▁유행": 4209,
    "▁구체적인": 4210,
    "▁합리적": 4211,
    "▁31": 4212,
    "▁이용하면": 4213,
    "▁떡": 4214,
    "▁한명": 4215,
    "▁중요성": 4216,
    "▁깔끔": 4217,
    "▁계획이에요": 4218,
    "▁부탁해요": 4219,
    "▁늦어": 4220,
    "▁표현할": 4221,
    "▁시골": 4222,
    "▁월": 4223,
    "시간을": 4224,
    "주시겠어요": 4225,
    "▁요리입니다": 4226,
    "▁한시간": 4227,
    "▁안경": 4228,
    "▁있다는것을": 4229,
    "▁미안": 4230,
    "▁공정": 4231,
    "▁자금": 4232,
    "▁독": 4233,
    "▁싸움": 4234,
    "▁줬으": 4235,
    "▁있었을": 4236,
    "▁주인": 4237,
    "▁하려": 4238,
    "▁그런지": 4239,
    "중": 4240,
    "었어": 4241,
    "▁들려": 4242,
    "▁찍을": 4243,
    "▁특": 4244,
    "어야": 4245,
    "▁운": 4246,
    "▁들지": 4247,
    "루기": 4248,
    "▁다면": 4249,
    "▁파스타": 4250,
    "g": 4251,
    "▁잊을": 4252,
    "짜리": 4253,
    "▁지나면": 4254,
    "▁일만": 4255,
    "했다": 4256,
    "▁흡수": 4257,
    "▁할수": 4258,
    "▁외국어": 4259,
    "▁가능할": 4260,
    "▁mm": 4261,
    "▁화려": 4262,
    "이야": 4263,
    "▁고급": 4264,
    "▁필요로": 4265,
    "▁소요": 4266,
    "▁네일": 4267,
    "▁D": 4268,
    "▁노트북": 4269,
    "▁섞어": 4270,
    "▁깊게": 4271,
    "▁낯선": 4272,
    "▁씁니다": 4273,
    "▁도메인": 4274,
    "▁기쁘게": 4275,
    "▁여보": 4276,
    "호": 4277,
    "▁싶으면": 4278,
    "▁있었지만": 4279,
    "▁운임": 4280,
    "▁돌아갈": 4281,
    "▁확인하세요": 4282,
    "▁편안하게": 4283,
    "▁분리": 4284,
    "▁도착했어요": 4285,
    "▁저장": 4286,
    "▁편입니다": 4287,
    "▁갖게": 4288,
    "▁바꾸고": 4289,
    "▁편이": 4290,
    "▁판매합니다": 4291,
    "▁방문해": 4292,
    "물": 4293,
    "▁커": 4294,
    "▁떨어지": 4295,
    "▁볼게요": 4296,
    "▁자체가": 4297,
    "▁무서워": 4298,
    "▁성분이": 4299,
    "▁기억해": 4300,
    "▁번역을": 4301,
    "▁수영장": 4302,
    "하였습니다": 4303,
    "▁세탁기": 4304,
    "▁시작한": 4305,
    "▁빌": 4306,
    "▁만들어요": 4307,
    "▁시원": 4308,
    "▁책임이": 4309,
    "▁이것에": 4310,
    "▁길게": 4311,
    "▁숨겨": 4312,
    "▁부여": 4313,
    "▁쌓": 4314,
    "c": 4315,
    "달": 4316,
    "▁놓": 4317,
    "▁해변": 4318,
    "만으로": 4319,
    "▁공부에": 4320,
    "▁카페에서": 4321,
    "▁색깔이": 4322,
    "▁알려준": 4323,
    "▁풍경": 4324,
    "▁에어컨": 4325,
    "▁일치": 4326,
    "▁동물들": 4327,
    "▁다섯": 4328,
    "우": 4329,
    "▁검은색": 4330,
    "▁알려진": 4331,
    "▁영어공부": 4332,
    "▁제주": 4333,
    "▁탄": 4334,
    "▁장애인": 4335,
    "▁키워": 4336,
    "▁경기장": 4337,
    "▁T": 4338,
    "▁나보다": 4339,
    "▁리뷰": 4340,
    "▁벗어나": 4341,
    "거": 4342,
    "▁뭔지": 4343,
    "▁뿌리": 4344,
    "▁않습니까": 4345,
    "▁다녀왔습니다": 4346,
    "▁끝날": 4347,
    "▁괜찮을까요": 4348,
    "▁더이상": 4349,
    "▁균형": 4350,
    "▁받습니다": 4351,
    "▁종료": 4352,
    "▁응": 4353,
    "▁사용되는": 4354,
    "▁발생합니다": 4355,
    "▁손해": 4356,
    "▁구매한": 4357,
    "▁없게": 4358,
    "▁데려다": 4359,
    "▁느끼게": 4360,
    "▁커서": 4361,
    "▁즐기고": 4362,
    "▁시장에서": 4363,
    "터": 4364,
    "▁계단": 4365,
    "▁참석할": 4366,
    "▁x": 4367,
    "▁지니": 4368,
    "▁깨끗한": 4369,
    "▁끝나면": 4370,
    "▁받아요": 4371,
    "성이": 4372,
    "했는지": 4373,
    "만이": 4374,
    "▁전반적": 4375,
    "▁e": 4376,
    "▁속이": 4377,
    "▁사랑할": 4378,
    "▁헤어": 4379,
    "▁소식": 4380,
    "▁보내줘": 4381,
    "▁파괴": 4382,
    "▁잘하지": 4383,
    "▁현": 4384,
    "▁세상이": 4385,
    "▁머무르": 4386,
    "▁여행이": 4387,
    "▁흰색": 4388,
    "▁넘어": 4389,
    "▁예측": 4390,
    "▁삶은": 4391,
    "▁오늘까지": 4392,
    "▁하니까": 4393,
    "▁개념": 4394,
    "▁스케줄이": 4395,
    "▁홀": 4396,
    "▁제공하고": 4397,
    "▁사랑하고": 4398,
    "▁망": 4399,
    "지금": 4400,
    "▁프로그램이": 4401,
    "▁하다": 4402,
    "▁기여": 4403,
    "▁버": 4404,
    "▁형제": 4405,
    "▁답장이": 4406,
    "▁수록": 4407,
    "▁협력": 4408,
    "▁프로모션": 4409,
    "▁것이야": 4410,
    "▁연필": 4411,
    "세기": 4412,
    "▁아름답": 4413,
    "▁45": 4414,
    "▁스토리": 4415,
    "▁갔": 4416,
    "▁소개하고": 4417,
    "▁의상": 4418,
    "▁신호": 4419,
    "▁진정": 4420,
    "▁투": 4421,
    "3": 4422,
    "▁왔으": 4423,
    "▁서둘러": 4424,
    "▁생선": 4425,
    "▁재활용": 4426,
    "▁불고기": 4427,
    "▁위험이": 4428,
    "▁카톡": 4429,
    "▁어느정도": 4430,
    "▁않았지만": 4431,
    "▁옵니다": 4432,
    "▁발견했습니다": 4433,
    "▁뵙": 4434,
    "▁재학": 4435,
    "▁춤": 4436,
    "▁보냈는데": 4437,
    "▁왔는데": 4438,
    "▁상호": 4439,
    "▁평범한": 4440,
    "▁드림": 4441,
    "▁도착하는": 4442,
    "▁우승": 4443,
    "▁대형": 4444,
    "▁하므로": 4445,
    "▁양말": 4446,
    "▁나누고": 4447,
    "▁비누": 4448,
    "▁사생활": 4449,
    "▁고용": 4450,
    "▁매력적인": 4451,
    "▁없": 4452,
    "▁임시": 4453,
    "▁때에": 4454,
    "▁됐습니다": 4455,
    "▁듣지": 4456,
    "▁필요하면": 4457,
    "▁떠나는": 4458,
    "▁인스타그램": 4459,
    "▁생기": 4460,
    "▁전화기": 4461,
    "▁몰라서": 4462,
    "▁있길": 4463,
    "군": 4464,
    "▁좋지만": 4465,
    "자를": 4466,
    "▁시내": 4467,
    "▁기술이": 4468,
    "▁그만큼": 4469,
    "▁찾아가": 4470,
    "토": 4471,
    "▁브라질": 4472,
    "▁세일": 4473,
    "▁요리사": 4474,
    "▁확신": 4475,
    "▁수령": 4476,
    "▁채워": 4477,
    "▁뛰어": 4478,
    "▁아름다워": 4479,
    "▁숨": 4480,
    "해주셔서": 4481,
    "▁29": 4482,
    "▁켜": 4483,
    "▁동기": 4484,
    "▁구체적": 4485,
    "▁소유": 4486,
    "갈": 4487,
    "이니": 4488,
    "▁병원에서": 4489,
    "▁밑에": 4490,
    "▁생성": 4491,
    "▁향후": 4492,
    "▁호텔을": 4493,
    "▁갖": 4494,
    "▁떡볶이": 4495,
    "▁변동": 4496,
    "▁현황": 4497,
    "▁드레스": 4498,
    "▁났습니다": 4499,
    "▁샀습니다": 4500,
    "▁티셔츠": 4501,
    "▁확인해야": 4502,
    "▁발효": 4503,
    "▁스킨": 4504,
    "▁내면": 4505,
    "▁얼마입니까": 4506,
    "▁결합": 4507,
    "▁걸린": 4508,
    "▁믿어요": 4509,
    "▁고려해": 4510,
    "할게요": 4511,
    "▁연결이": 4512,
    "▁이야기해": 4513,
    "▁경우에": 4514,
    "▁모른다": 4515,
    "▁이어": 4516,
    "▁부모님과": 4517,
    "▁대화가": 4518,
    "▁착": 4519,
    "▁해낼": 4520,
    "▁경쟁력": 4521,
    "낸": 4522,
    "지를": 4523,
    "했지만": 4524,
    "▁명절": 4525,
    "▁하더라도": 4526,
    "▁배려": 4527,
    "▁상기": 4528,
    "사가": 4529,
    "▁빼고": 4530,
    "▁때로": 4531,
    "▁주어서": 4532,
    "▁살지": 4533,
    "▁취직": 4534,
    "▁거리에": 4535,
    "▁일해": 4536,
    "▁올라가": 4537,
    "▁조각": 4538,
    "▁구워": 4539,
    "▁부부": 4540,
    "젠": 4541,
    "▁의료": 4542,
    "보겠습니다": 4543,
    "▁처": 4544,
    "▁남자와": 4545,
    "▁행복하고": 4546,
    "▁읽기": 4547,
    "시킬": 4548,
    "▁유치원": 4549,
    "▁사장": 4550,
    "유": 4551,
    "cm": 4552,
    "▁위주": 4553,
    "▁주소가": 4554,
    "▁된다는": 4555,
    "▁우려": 4556,
    "▁구축": 4557,
    "기에": 4558,
    "이기도": 4559,
    "▁결제가": 4560,
    "▁사전에": 4561,
    "▁여행지": 4562,
    "▁건조": 4563,
    "키": 4564,
    "▁수집": 4565,
    "▁승무원이": 4566,
    "▁가려": 4567,
    "▁무역": 4568,
    "▁같지": 4569,
    "▁만나자": 4570,
    "▁색이": 4571,
    "▁기념": 4572,
    "▁스트랩": 4573,
    "▁덜어": 4574,
    "▁액세서리": 4575,
    "▁토마토": 4576,
    "▁인테리어": 4577,
    "▁사소한": 4578,
    "감을": 4579,
    "▁칼": 4580,
    "▁모르지만": 4581,
    "▁나왔어요": 4582,
    "▁메": 4583,
    "▁아파요": 4584,
    "▁시킬": 4585,
    "▁특이한": 4586,
    "▁전화로": 4587,
    "▁넘버": 4588,
    "▁식감": 4589,
    "▁그래요": 4590,
    "▁와야": 4591,
    "▁일자리": 4592,
    "▁보았다": 4593,
    "▁여행할": 4594,
    "▁주셔야": 4595,
    "▁일어나지": 4596,
    "합니까": 4597,
    "▁데리러": 4598,
    "▁아프지": 4599,
    "▁향수": 4600,
    "▁잠시만": 4601,
    "널리": 4602,
    "▁그분": 4603,
    "▁누군가에게": 4604,
    "▁것인가요": 4605,
    "▁행사에": 4606,
    "▁앉아서": 4607,
    "동": 4608,
    "▁업": 4609,
    "▁단위": 4610,
    "▁행복할": 4611,
    "▁관람": 4612,
    "▁생일이": 4613,
    "▁싱가포르": 4614,
    "▁읽으면": 4615,
    "▁의견이": 4616,
    "▁송장": 4617,
    "드릴게요": 4618,
    "▁공장에": 4619,
    "▁건강하고": 4620,
    "▁선물로": 4621,
    "C": 4622,
    "▁붙어": 4623,
    "▁출력": 4624,
    "▁입는": 4625,
    "▁지속적": 4626,
    "▁정류장": 4627,
    "므로": 4628,
    "▁희생": 4629,
    "▁고쳐": 4630,
    "▁마이크": 4631,
    "▁이때": 4632,
    "▁권력": 4633,
    "▁내야": 4634,
    "▁즐거움": 4635,
    "▁말하면": 4636,
    "▁도울": 4637,
    "판": 4638,
    "▁보여주": 4639,
    "▁무릎": 4640,
    "▁사이트에서": 4641,
    "보도록": 4642,
    "▁드라이브": 4643,
    "▁놀아": 4644,
    "▁후기": 4645,
    "▁엔지니어": 4646,
    "▁열려": 4647,
    "▁전세계": 4648,
    "▁무엇이든": 4649,
    "▁플라스틱": 4650,
    "▁교류": 4651,
    "▁슬픔": 4652,
    "▁매뉴얼": 4653,
    "▁찾지": 4654,
    "▁대구": 4655,
    "▁정중": 4656,
    "▁2014": 4657,
    "▁괜찮다면": 4658,
    "▁보기에": 4659,
    "▁확대": 4660,
    "▁주시는": 4661,
    "▁사랑스러운": 4662,
    "▁부족합니다": 4663,
    "▁갑시다": 4664,
    "▁편견": 4665,
    "▁바닥": 4666,
    "▁도와주세요": 4667,
    "▁체중": 4668,
    "▁살아요": 4669,
    "▁만들어야": 4670,
    "▁도구": 4671,
    "▁예정이니": 4672,
    "▁안녕": 4673,
    "▁눈물": 4674,
    "▁누르면": 4675,
    "▁아니라면": 4676,
    "비를": 4677,
    "▁기차를": 4678,
    "▁경우는": 4679,
    "▁부분에서": 4680,
    "▁양이": 4681,
    "▁무엇": 4682,
    "▁줬어요": 4683,
    "문을": 4684,
    "▁최": 4685,
    "▁한계": 4686,
    "반": 4687,
    "▁공개": 4688,
    "▁맡겨": 4689,
    "▁아르바이트": 4690,
    "▁들어가서": 4691,
    "▁가끔은": 4692,
    "▁달성": 4693,
    "▁운명": 4694,
    "국": 4695,
    "▁되었는지": 4696,
    "▁감정이": 4697,
    "▁배우기": 4698,
    "▁대처": 4699,
    "▁오게": 4700,
    "▁입원": 4701,
    "▁하시기": 4702,
    "▁부스": 4703,
    "▁거라는": 4704,
    "▁라": 4705,
    "▁한다": 4706,
    "▁수영장에": 4707,
    "▁제주도에": 4708,
    "▁고객과": 4709,
    "▁증상이": 4710,
    "바로": 4711,
    "▁모듈": 4712,
    "▁여행에서": 4713,
    "▁추후": 4714,
    "▁유튜브": 4715,
    "▁기기": 4716,
    "▁직업이": 4717,
    "▁준비해야": 4718,
    "▁동생이": 4719,
    "▁들으면": 4720,
    "▁재능": 4721,
    "병": 4722,
    "▁순위": 4723,
    "▁진행하는": 4724,
    "▁들어가는": 4725,
    "▁둘러": 4726,
    "▁활성화": 4727,
    "▁넣을": 4728,
    "▁익": 4729,
    "▁증명": 4730,
    "매번": 4731,
    "▁않을까": 4732,
    "▁햄버거": 4733,
    "▁인류": 4734,
    "▁튀김": 4735,
    "▁선수가": 4736,
    "▁생각했어": 4737,
    "▁어렵": 4738,
    "▁터키": 4739,
    "▁많기": 4740,
    "▁조만간": 4741,
    "▁제임스": 4742,
    "▁상태로": 4743,
    "▁지킬": 4744,
    "하시고": 4745,
    "▁기구": 4746,
    "▁갔었어요": 4747,
    "▁필요하시면": 4748,
    "▁규제": 4749,
    "▁관하여": 4750,
    "슨": 4751,
    "▁창": 4752,
    "▁파트": 4753,
    "모": 4754,
    "▁둘이": 4755,
    "져서": 4756,
    "▁보았어요": 4757,
    "▁기간에": 4758,
    "▁알려주시면": 4759,
    "▁우수한": 4760,
    "▁강제": 4761,
    "▁남자들": 4762,
    "했기": 4763,
    "▁줬어": 4764,
    "▁타야": 4765,
    "▁친구한테": 4766,
    "▁일도": 4767,
    "▁그러다": 4768,
    "하시기": 4769,
    "▁신체": 4770,
    "▁지켜야": 4771,
    "▁찍고": 4772,
    "▁결과에": 4773,
    "▁타인": 4774,
    "▁고생": 4775,
    "▁나라입니다": 4776,
    "▁밀": 4777,
    "▁중요하": 4778,
    "▁잘라": 4779,
    "▁바닷가": 4780,
    "▁파일이": 4781,
    "▁응답": 4782,
    "▁하느라": 4783,
    "친": 4784,
    "피": 4785,
    "▁요리는": 4786,
    "▁늘어나": 4787,
    "▁짐이": 4788,
    "▁주인공이": 4789,
    "▁시작하는": 4790,
    "▁답이": 4791,
    "▁플랫폼": 4792,
    "▁캐나다에서": 4793,
    "▁판매하고": 4794,
    "▁욕": 4795,
    "▁재밌는": 4796,
    "▁이야기입니다": 4797,
    "▁나지": 4798,
    "▁제시": 4799,
    "▁표현이": 4800,
    "▁책임감": 4801,
    "▁정신이": 4802,
    "▁잊어": 4803,
    "▁예배": 4804,
    "▁이별": 4805,
    "줘": 4806,
    "▁친해지": 4807,
    "▁하나로": 4808,
    "군요": 4809,
    "▁출판": 4810,
    "▁하나만": 4811,
    "▁목걸이": 4812,
    "▁생겼어": 4813,
    "▁부러워": 4814,
    "▁만났습니다": 4815,
    "▁잊고": 4816,
    "▁카탈로그": 4817,
    "▁계십니다": 4818,
    "▁코멘트": 4819,
    "▁토끼": 4820,
    "▁빨간": 4821,
    "▁미니": 4822,
    "▁50%": 4823,
    "▁없을까요": 4824,
    "▁디지털": 4825,
    "▁분쟁": 4826,
    "▁10%": 4827,
    "▁유형": 4828,
    "▁미션": 4829,
    "▁치아": 4830,
    "▁불만": 4831,
    "▁요구하는": 4832,
    "▁가겠습니다": 4833,
    "▁국물": 4834,
    "▁친절하게": 4835,
    "▁마크": 4836,
    "▁좋아하는데": 4837,
    "였던": 4838,
    "▁부족해서": 4839,
    "래도": 4840,
    "▁취소해": 4841,
    "▁승무원": 4842,
    "▁늦게까지": 4843,
    "▁감자": 4844,
    "▁누구에게": 4845,
    "▁귀엽": 4846,
    "▁낸": 4847,
    "▁했나요": 4848,
    "▁진학": 4849,
    "▁존중": 4850,
    "▁가는데": 4851,
    "▁세팅": 4852,
    "는지": 4853,
    "▁임신": 4854,
    "줄게요": 4855,
    "▁설비": 4856,
    "단": 4857,
    "▁검토해": 4858,
    "▁성공할": 4859,
    "느라": 4860,
    "▁강도": 4861,
    "▁좋았을": 4862,
    "▁위해서입니다": 4863,
    "▁삶에서": 4864,
    "▁키우는": 4865,
    "▁석": 4866,
    "있어요": 4867,
    "▁조명": 4868,
    "▁생산이": 4869,
    "▁납기": 4870,
    "▁지어": 4871,
    "▁심사": 4872,
    "▁진료": 4873,
    "▁하루가": 4874,
    "▁중간에": 4875,
    "▁불리는": 4876,
    "주실": 4877,
    "▁동화": 4878,
    "▁죽어": 4879,
    "▁노는": 4880,
    "▁폭력": 4881,
    "▁사무실에서": 4882,
    "▁가스": 4883,
    "▁정해지": 4884,
    "M": 4885,
    "▁다음에는": 4886,
    "▁초록색": 4887,
    "▁몇일": 4888,
    "▁기르": 4889,
    "▁닮": 4890,
    "▁우리집": 4891,
    "▁트위터": 4892,
    "▁것이라는": 4893,
    "▁밴드": 4894,
    "▁카페에": 4895,
    "▁닫": 4896,
    "▁완료된": 4897,
    "▁머무": 4898,
    "정": 4899,
    "▁삼촌": 4900,
    "▁체육": 4901,
    "▁얻고": 4902,
    "▁거리를": 4903,
    "▁암": 4904,
    "▁신용": 4905,
    "▁v": 4906,
    "▁차는": 4907,
    "▁노란색": 4908,
    "▁샌드위치": 4909,
    "▁엘리베이터": 4910,
    "▁스펙": 4911,
    "▁이어폰": 4912,
    "▁테니까": 4913,
    "▁일러스트": 4914,
    "▁햇빛": 4915,
    "▁미안한데": 4916,
    "▁장단점": 4917,
    "▁새우": 4918,
    "타": 4919,
    "▁들어올": 4920,
    "▁다녀왔어요": 4921,
    "▁도착했습니다": 4922,
    "▁시리즈": 4923,
    "▁않았기": 4924,
    "▁맛있어요": 4925,
    "▁찾아야": 4926,
    "▁만들었어요": 4927,
    "▁다소": 4928,
    "▁회화": 4929,
    "▁판매해요": 4930,
    "▁이내에": 4931,
    "▁풍부한": 4932,
    "▁의미합니다": 4933,
    "▁보시고": 4934,
    "▁우리나라에서": 4935,
    "▁낮에": 4936,
    "▁맛있어": 4937,
    "▁모르고": 4938,
    "▁문법": 4939,
    "▁환": 4940,
    "▁죄송합니다만": 4941,
    "한적이": 4942,
    "▁싶었던": 4943,
    "▁진출": 4944,
    "▁시행": 4945,
    "▁반대로": 4946,
    "▁높아": 4947,
    "▁고유": 4948,
    "▁발표할": 4949,
    "▁거절": 4950,
    "▁수정할": 4951,
    "▁하나님": 4952,
    "▁문제의": 4953,
    "▁생활에": 4954,
    "▁공부하기": 4955,
    "▁혼": 4956,
    "▁하시고": 4957,
    "▁새벽에": 4958,
    "▁외에": 4959,
    "▁통보": 4960,
    "▁뭐든": 4961,
    "▁필름": 4962,
    "▁주차장": 4963,
    "▁살면": 4964,
    "▁되었을": 4965,
    "▁기다리는": 4966,
    "▁전용": 4967,
    "▁구글": 4968,
    "▁직장에서": 4969,
    "▁파일로": 4970,
    "▁인간이": 4971,
    "▁입어": 4972,
    "▁소원": 4973,
    "▁치과": 4974,
    "▁보장": 4975,
    "▁회사입니다": 4976,
    "▁날짜에": 4977,
    "것보다": 4978,
    "▁쪽에": 4979,
    "▁행동에": 4980,
    "▁흡연": 4981,
    "▁안돼": 4982,
    "▁연관": 4983,
    "▁치고": 4984,
    "▁f": 4985,
    "▁공공": 4986,
    "▁애플리케이션": 4987,
    "▁불가능한": 4988,
    "▁어떨까": 4989,
    "▁셋째": 4990,
    "▁깜짝": 4991,
    "▁컨디션": 4992,
    "▁알았습니다": 4993,
    "▁첨부하였습니다": 4994,
    "▁실습": 4995,
    "▁잤어요": 4996,
    "▁불가능합니다": 4997,
    "▁쪽에서": 4998,
    "▁번째는": 4999,
    "▁항공권": 5000,
    "▁의학": 5001,
    "▁두께": 5002,
    "▁펜": 5003,
    "▁싫": 5004,
    "시는": 5005,
    "▁그러지": 5006,
    "▁도입": 5007,
    "▁학교로": 5008,
    "▁주신다면": 5009,
    "▁말아야": 5010,
    "▁리그": 5011,
    "▁보내주시기": 5012,
    "▁얻은": 5013,
    "▁업체에": 5014,
    "급": 5015,
    "▁주어야": 5016,
    "▁하기에": 5017,
    "▁주식": 5018,
    "▁자식": 5019,
    "▁드셔": 5020,
    "▁통일": 5021,
    "▁주겠습니다": 5022,
    "▁소중": 5023,
    "▁만화": 5024,
    "▁맘에": 5025,
    "거에요": 5026,
    "증": 5027,
    "주의": 5028,
    "▁판매가": 5029,
    "▁지시": 5030,
    "▁구성되어": 5031,
    "▁운이": 5032,
    "이어서": 5033,
    "▁실현": 5034,
    "▁모든것이": 5035,
    "▁결혼하고": 5036,
    "▁금지": 5037,
    "▁싶": 5038,
    "▁시험에": 5039,
    "▁걷": 5040,
    "▁공감": 5041,
    "▁밑": 5042,
    "▁유통": 5043,
    "▁낭비": 5044,
    "▁캐나다에": 5045,
    "▁콜라": 5046,
    "▁못하면": 5047,
    "▁잘할": 5048,
    "▁표정": 5049,
    "대학교": 5050,
    "리는": 5051,
    "하기로": 5052,
    "▁잃": 5053,
    "▁28": 5054,
    "▁바른": 5055,
    "▁구두": 5056,
    "▁생각한": 5057,
    "류": 5058,
    "▁위기": 5059,
    "▁길로": 5060,
    "▁싶다는": 5061,
    "▁무기": 5062,
    "저": 5063,
    "▁회계": 5064,
    "▁어깨": 5065,
    "▁도중": 5066,
    "▁광": 5067,
    "▁상해": 5068,
    "화를": 5069,
    "관": 5070,
    "▁포스터": 5071,
    "▁꼬": 5072,
    "▁영화에": 5073,
    "▁가르": 5074,
    "▁괜찮습니다": 5075,
    "▁이야기할": 5076,
    "▁애플": 5077,
    "▁뽀로로": 5078,
    "▁트래킹": 5079,
    "▁추억이": 5080,
    "▁M": 5081,
    "▁그렇죠": 5082,
    "▁어둠": 5083,
    "▁인도네시아": 5084,
    "▁무서운": 5085,
    "▁나눌": 5086,
    "▁테마": 5087,
    "▁부릅니다": 5088,
    "▁양파": 5089,
    "▁셔츠": 5090,
    "▁비교적": 5091,
    "▁샐러드": 5092,
    "▁선호합니다": 5093,
    "▁어디인가요": 5094,
    "▁말했듯이": 5095,
    "▁독특한": 5096,
    "▁주어진": 5097,
    "▁바랄게요": 5098,
    "▁보드": 5099,
    "▁마늘": 5100,
    "▁화이트": 5101,
    "▁생겼어요": 5102,
    "▁차라": 5103,
    "▁원하시는": 5104,
    "올": 5105,
    "▁탑승": 5106,
    "▁자리에서": 5107,
    "▁제공해요": 5108,
    "▁시작해요": 5109,
    "▁많지만": 5110,
    "자에게": 5111,
    "▁1,000": 5112,
    "▁대화할": 5113,
    "▁되는데": 5114,
    "▁기숙사에": 5115,
    "▁E": 5116,
    "▁음료수": 5117,
    "▁저런": 5118,
    "▁판매할": 5119,
    "▁p": 5120,
    "▁요청에": 5121,
    "▁복지": 5122,
    "▁검증": 5123,
    "▁민": 5124,
    "▁오른쪽으로": 5125,
    "▁가득한": 5126,
    "하시는": 5127,
    "▁외국인에게": 5128,
    "▁건너": 5129,
    "▁쥐": 5130,
    "▁장착": 5131,
    "▁첫째로": 5132,
    "▁시점": 5133,
    "▁컴퓨터로": 5134,
    "▁보조": 5135,
    "▁명세": 5136,
    "▁여러분에게": 5137,
    "▁말입니다": 5138,
    "▁가르치": 5139,
    "▁도쿄에": 5140,
    "▁휴일": 5141,
    "▁이모": 5142,
    "▁외국에": 5143,
    "▁선택해": 5144,
    "▁수강": 5145,
    "▁초에": 5146,
    "포": 5147,
    "▁생기는": 5148,
    "▁캠프": 5149,
    "▁일하기": 5150,
    "해주시면": 5151,
    "▁그쪽": 5152,
    "▁부산에서": 5153,
    "▁유저": 5154,
    "학": 5155,
    "고루": 5156,
    "▁오신": 5157,
    "▁그리스": 5158,
    "▁다니": 5159,
    "력": 5160,
    "▁스트레스가": 5161,
    "▁다운": 5162,
    "▁임금": 5163,
    "5": 5164,
    "▁미국으로": 5165,
    "▁취득": 5166,
    "▁언급": 5167,
    "▁엄마의": 5168,
    "▁나라로": 5169,
    "▁흔적": 5170,
    "▁이길": 5171,
    "▁비싸": 5172,
    "▁다양": 5173,
    "드린": 5174,
    "▁연설": 5175,
    "▁보람": 5176,
    "▁바꾸는": 5177,
    "▁공포": 5178,
    "▁보여줄": 5179,
    "프": 5180,
    "▁샀어": 5181,
    "▁띄": 5182,
    "점이": 5183,
    "▁뚜껑": 5184,
    "▁짧게": 5185,
    "▁dhl": 5186,
    "▁로봇": 5187,
    "▁많았습니다": 5188,
    "▁20%": 5189,
    "▁실례지만": 5190,
    "▁어린아이들": 5191,
    "▁가능할까요": 5192,
    "▁기존에": 5193,
    "▁다수": 5194,
    "S": 5195,
    "▁몰랐어요": 5196,
    "▁알바": 5197,
    "▁유명해요": 5198,
    "▁달라요": 5199,
    "▁요청했습니다": 5200,
    "▁대량": 5201,
    "▁항목": 5202,
    "▁마라": 5203,
    "▁학교생활": 5204,
    "▁쉽고": 5205,
    "▁가나요": 5206,
    "▁후회하지": 5207,
    "▁복잡한": 5208,
    "▁가격과": 5209,
    "▁박스에": 5210,
    "▁중앙": 5211,
    "▁세포": 5212,
    "▁진행됩니다": 5213,
    "주었습니다": 5214,
    "▁노력합니다": 5215,
    "▁포함된": 5216,
    "▁싼": 5217,
    "▁날씨는": 5218,
    "▁변하": 5219,
    "▁중요하지": 5220,
    "▁영향력": 5221,
    "호선": 5222,
    "▁최소한": 5223,
    "▁알기": 5224,
    "▁압력": 5225,
    "▁대표하는": 5226,
    "▁바나나": 5227,
    "▁욕심": 5228,
    "▁정성": 5229,
    "▁예쁘고": 5230,
    "▁도시에": 5231,
    "영": 5232,
    "해주시기": 5233,
    "▁기념일": 5234,
    "▁무한": 5235,
    "▁사람으로": 5236,
    "▁냉장고": 5237,
    "장이": 5238,
    "그": 5239,
    "▁둔": 5240,
    "▁십": 5241,
    "▁모드": 5242,
    "▁w": 5243,
    "▁제안한": 5244,
    "▁인생은": 5245,
    "▁개가": 5246,
    "▁것들": 5247,
    "▁마을에": 5248,
    "▁매장에서": 5249,
    "▁누구와": 5250,
    "▁되게": 5251,
    "▁협업": 5252,
    "▁무상": 5253,
    "▁되면서": 5254,
    "했을": 5255,
    "▁세계에": 5256,
    "▁팩": 5257,
    "▁이루어": 5258,
    "▁페이스북에": 5259,
    "하니": 5260,
    "▁제도": 5261,
    "▁안전한": 5262,
    "두고": 5263,
    "용으로": 5264,
    "▁가로": 5265,
    "▁연애": 5266,
    "▁샤워": 5267,
    "▁날에": 5268,
    "하겠습니다": 5269,
    "▁뜨": 5270,
    "▁가져가": 5271,
    "▁수정해": 5272,
    "▁끈": 5273,
    "▁빌딩": 5274,
    "▁사양": 5275,
    "▁중국인": 5276,
    "▁가죽": 5277,
    "▁환불이": 5278,
    "▁바라는": 5279,
    "▁보이": 5280,
    "▁부드럽": 5281,
    "▁주문하고": 5282,
    "▁게임이": 5283,
    "▁스미스": 5284,
    "▁만났어": 5285,
    "▁싱글": 5286,
    "▁미세먼지": 5287,
    "▁아픕니다": 5288,
    "▁옳은": 5289,
    "▁원산지": 5290,
    "▁실리콘": 5291,
    "▁배드민턴": 5292,
    "▁어떻습니까": 5293,
    "▁어두운": 5294,
    "▁봉사활동": 5295,
    "▁반납": 5296,
    "▁당분간": 5297,
    "▁즐겁고": 5298,
    "▁듣습니다": 5299,
    "▁교통사고": 5300,
    "▁자신만의": 5301,
    "▁예정이야": 5302,
    "▁턱": 5303,
    "▁소송": 5304,
    "▁맞아요": 5305,
    "▁공동": 5306,
    "▁벨트": 5307,
    "▁곰": 5308,
    "▁참고하여": 5309,
    "▁뭔가요": 5310,
    "▁노인": 5311,
    "▁추천해요": 5312,
    "▁보여주세요": 5313,
    "▁데이": 5314,
    "▁축": 5315,
    "▁못하게": 5316,
    "▁주셨습니다": 5317,
    "▁하려는": 5318,
    "▁청": 5319,
    "▁약한": 5320,
    "▁주스": 5321,
    "▁나오": 5322,
    "▁문화에": 5323,
    "▁어려움이": 5324,
    "▁팀에": 5325,
    "▁코트": 5326,
    "▁함유": 5327,
    "하오니": 5328,
    "▁목표입니다": 5329,
    "▁애인": 5330,
    "8": 5331,
    "▁타임": 5332,
    "▁동네": 5333,
    "▁열이": 5334,
    "원입니다": 5335,
    "▁열정이": 5336,
    "▁엄마에게": 5337,
    "▁이용하고": 5338,
    "▁음식들": 5339,
    "▁전환": 5340,
    "하느라": 5341,
    "▁주방": 5342,
    "구나": 5343,
    "▁주려고": 5344,
    "▁경향이": 5345,
    "▁부서에": 5346,
    "▁서울시": 5347,
    "▁내릴": 5348,
    "▁사용해야": 5349,
    "▁의견에": 5350,
    "▁느낀": 5351,
    "▁장기": 5352,
    "하던": 5353,
    "▁학원에서": 5354,
    "▁그릴": 5355,
    "되었는지": 5356,
    "▁정도입니다": 5357,
    "▁교회에": 5358,
    "▁척": 5359,
    "▁책에": 5360,
    "▁테이프": 5361,
    "▁표현하는": 5362,
    "▁입사": 5363,
    "▁축제에": 5364,
    "약을": 5365,
    "▁추천하고": 5366,
    "▁화장실에": 5367,
    "▁다양하": 5368,
    "▁공유해": 5369,
    "▁섭취": 5370,
    "▁공원에": 5371,
    "▁친구입니다": 5372,
    "▁N": 5373,
    "▁보완": 5374,
    "▁식당이": 5375,
    "▁구매하고": 5376,
    "▁깨닫": 5377,
    "▁클릭": 5378,
    "▁관세": 5379,
    "▁취소하고": 5380,
    "▁실례": 5381,
    "▁트렌드": 5382,
    "▁한데": 5383,
    "▁F": 5384,
    "▁번역이": 5385,
    "▁사야": 5386,
    "셔도": 5387,
    "▁창업": 5388,
    "▁겨울방학": 5389,
    "▁프레젠테이션": 5390,
    "▁DHL": 5391,
    "▁져": 5392,
    "▁생일파티": 5393,
    "▁용서": 5394,
    "▁조심하세요": 5395,
    "▁보습": 5396,
    "▁마법": 5397,
    "▁비벼": 5398,
    "▁환영합니다": 5399,
    "▁재산": 5400,
    "▁PO": 5401,
    "이었어요": 5402,
    "▁게시물": 5403,
    "▁맛있습니다": 5404,
    "▁들어온": 5405,
    "▁광주": 5406,
    "▁내렸습니다": 5407,
    "▁걸려요": 5408,
    "▁피곤해": 5409,
    "▁존재합니다": 5410,
    "▁전원": 5411,
    "▁않았고": 5412,
    "▁추적": 5413,
    "▁연락할게": 5414,
    "▁사귀고": 5415,
    "▁아동": 5416,
    "▁재물": 5417,
    "▁져야": 5418,
    "▁귀사에": 5419,
    "▁도시는": 5420,
    "▁주었어요": 5421,
    "▁한달에": 5422,
    "▁포함해서": 5423,
    "▁호": 5424,
    "▁지불할": 5425,
    "▁허용": 5426,
    "▁간다": 5427,
    "▁되며": 5428,
    "수밖에": 5429,
    "▁루": 5430,
    "▁장점이": 5431,
    "▁g": 5432,
    "▁거래처": 5433,
    "▁칭찬": 5434,
    "▁좋아하지만": 5435,
    "▁지점": 5436,
    "▁걸쳐": 5437,
    "▁맡아": 5438,
    "▁내리고": 5439,
    "▁현상이": 5440,
    "▁정장": 5441,
    "▁되나": 5442,
    "▁P": 5443,
    "▁회사로": 5444,
    "▁해소": 5445,
    "▁화학": 5446,
    "임을": 5447,
    "▁곤": 5448,
    "▁잃어": 5449,
    "▁때면": 5450,
    "▁눈으로": 5451,
    "▁이끌어": 5452,
    "▁베트남에": 5453,
    "끼리": 5454,
    "▁너에": 5455,
    "복": 5456,
    "시간이": 5457,
    "▁보내길": 5458,
    "▁녹": 5459,
    "살이고": 5460,
    "▁마지막에": 5461,
    "▁값이": 5462,
    "▁재정": 5463,
    "▁카테고리": 5464,
    "둔": 5465,
    "▁정치적": 5466,
    "▁리조트": 5467,
    "▁외국인들": 5468,
    "냐고": 5469,
    "▁수치": 5470,
    "▁가능하게": 5471,
    "▁이것들": 5472,
    "▁걸리는": 5473,
    "▁혁신": 5474,
    "▁표현을": 5475,
    "▁경계": 5476,
    "▁되지만": 5477,
    "▁콩": 5478,
    "▁친구야": 5479,
    "▁야외": 5480,
    "▁대부분이": 5481,
    "▁수영을": 5482,
    "편": 5483,
    "▁사실이": 5484,
    "▁봄이": 5485,
    "▁현재까지": 5486,
    "다시": 5487,
    "▁한식": 5488,
    "▁법적": 5489,
    "▁소화": 5490,
    "▁지하": 5491,
    "▁간절": 5492,
    "▁운행": 5493,
    "▁환상": 5494,
    "▁지진": 5495,
    "▁가보고": 5496,
    "▁누워": 5497,
    "▁말했어": 5498,
    "▁자지": 5499,
    "▁돼지고기": 5500,
    "▁슈퍼": 5501,
    "▁즐거워": 5502,
    "치고": 5503,
    "▁표준": 5504,
    "▁갔었어": 5505,
    "▁적절": 5506,
    "▁관리자": 5507,
    "▁텍스트": 5508,
    "▁스위치": 5509,
    "▁비빔밥": 5510,
    "▁스위스": 5511,
    "▁담당하": 5512,
    "▁손톱": 5513,
    "▁테": 5514,
    "▁완벽히": 5515,
    "▁가치관": 5516,
    "▁에러": 5517,
    "▁초대해": 5518,
    "▁가난한": 5519,
    "▁걸어가": 5520,
    "▁서울로": 5521,
    "▁기침": 5522,
    "▁재질": 5523,
    "▁유용한": 5524,
    "년대": 5525,
    "▁보니까": 5526,
    "▁생각됩니다": 5527,
    "▁층": 5528,
    "▁숙소에": 5529,
    "▁외국인이": 5530,
    "▁블루": 5531,
    "▁운송비": 5532,
    "▁동료들": 5533,
    "▁예매": 5534,
    "▁했었습니다": 5535,
    "▁도와주": 5536,
    "▁주어": 5537,
    "▁집안": 5538,
    "▁주름": 5539,
    "▁사촌": 5540,
    "▁풍부": 5541,
    "▁부르": 5542,
    "▁꺼": 5543,
    "▁중인데": 5544,
    "▁서비스로": 5545,
    "보았습니다": 5546,
    "▁자신들": 5547,
    "▁그러고": 5548,
    "▁있는것이": 5549,
    "▁중이라": 5550,
    "▁바라보는": 5551,
    "▁앨범": 5552,
    "▁결혼식에": 5553,
    "▁하였고": 5554,
    "▁언제부터": 5555,
    "▁한장": 5556,
    "▁줄어들": 5557,
    "▁주었다": 5558,
    "▁모니터": 5559,
    "▁점에": 5560,
    "▁한국말": 5561,
    "개월이": 5562,
    "▁여기까지": 5563,
    "문": 5564,
    "▁전화해서": 5565,
    "거라고": 5566,
    "▁고치": 5567,
    "▁주위에": 5568,
    "▁그간": 5569,
    "▁프린터": 5570,
    "차근": 5571,
    "▁정원": 5572,
    "▁구입": 5573,
    "▁져서": 5574,
    "▁지각": 5575,
    "▁줬": 5576,
    "들로": 5577,
    "▁메일이": 5578,
    "▁인연": 5579,
    "▁시간이에요": 5580,
    "▁물건들": 5581,
    "▁문제입니다": 5582,
    "가요": 5583,
    "▁운전자": 5584,
    "▁화장": 5585,
    "▁집단": 5586,
    "하긴": 5587,
    "▁학업": 5588,
    "▁하느님": 5589,
    "▁모델은": 5590,
    "▁오래전": 5591,
    "▁부상": 5592,
    "▁태풍": 5593,
    "▁부위": 5594,
    "▁보증": 5595,
    "▁힘들고": 5596,
    "▁약속한": 5597,
    "▁길어": 5598,
    "▁우편": 5599,
    "▁몇년": 5600,
    "▁이겨": 5601,
    "▁살려": 5602,
    "▁추진": 5603,
    "▁체": 5604,
    "▁여름이": 5605,
    "▁전국": 5606,
    "▁재판": 5607,
    "▁불안": 5608,
    "▁하기도": 5609,
    "유로": 5610,
    "▁달아": 5611,
    "▁이력서": 5612,
    "▁아이콘": 5613,
    "만한": 5614,
    "▁미국인": 5615,
    "▁힘듭니다": 5616,
    "▁어떠세요": 5617,
    "▁하나하나": 5618,
    "▁갔었습니다": 5619,
    "▁창고에": 5620,
    "▁모공": 5621,
    "▁붓": 5622,
    "▁무엇일까요": 5623,
    "▁틀린": 5624,
    "▁화재": 5625,
    "▁현상": 5626,
    "▁우울증": 5627,
    "▁솔직하게": 5628,
    "▁유명합니다": 5629,
    "▁검토하고": 5630,
    "▁맛집": 5631,
    "▁발견했어요": 5632,
    "▁음식에": 5633,
    "▁보였어요": 5634,
    "▁보내주실": 5635,
    "▁사상": 5636,
    "▁갖다": 5637,
    "▁하늘이": 5638,
    "역에서": 5639,
    "▁감독": 5640,
    "함이": 5641,
    "▁제공하지": 5642,
    "▁저번주": 5643,
    "▁출발하는": 5644,
    "▁적극적인": 5645,
    "▁변경될": 5646,
    "▁하여야": 5647,
    "▁끊": 5648,
    "▁연결해": 5649,
    "▁했으며": 5650,
    "▁페이지를": 5651,
    "▁보내주": 5652,
    "▁헤드": 5653,
    "▁마주": 5654,
    "▁동료들과": 5655,
    "원이": 5656,
    "▁개별": 5657,
    "크": 5658,
    "▁내지": 5659,
    "▁바다에": 5660,
    "▁영화에서": 5661,
    "▁쇼핑몰": 5662,
    "▁걸려서": 5663,
    "▁공부해서": 5664,
    "세트": 5665,
    "▁h": 5666,
    "▁왕자": 5667,
    "▁팀에서": 5668,
    "▁교수님께": 5669,
    "▁단순한": 5670,
    "▁요청해": 5671,
    "▁kg": 5672,
    "▁세계적인": 5673,
    "▁역량": 5674,
    "▁마이": 5675,
    "▁70": 5676,
    "▁도로": 5677,
    "▁야간": 5678,
    "▁써서": 5679,
    "▁우체국에": 5680,
    "▁여자들이": 5681,
    "▁주며": 5682,
    "▁회의에": 5683,
    "만을": 5684,
    "▁절약": 5685,
    "▁하우스": 5686,
    "▁시킨": 5687,
    "▁재킷": 5688,
    "▁라디오": 5689,
    "▁번호로": 5690,
    "▁어떤지": 5691,
    "▁처리해": 5692,
    "▁가공": 5693,
    "▁두통": 5694,
    "▁많다는": 5695,
    "▁깎아": 5696,
    "▁겨울이": 5697,
    "▁향이": 5698,
    "▁준비되어": 5699,
    "▁인권": 5700,
    "▁움직일": 5701,
    "▁신청서": 5702,
    "▁행운이": 5703,
    "▁진행한": 5704,
    "스타": 5705,
    "▁심장": 5706,
    "▁다행히": 5707,
    "색": 5708,
    "▁초과": 5709,
    "▁디자인으로": 5710,
    "▁부족해": 5711,
    "르": 5712,
    "▁다니기": 5713,
    "장으로": 5714,
    "▁장소에": 5715,
    "▁출구": 5716,
    "▁적혀": 5717,
    "▁솔루션": 5718,
    "▁영화입니다": 5719,
    "▁노동": 5720,
    "▁행정": 5721,
    "▁아프리카": 5722,
    "▁펌웨어": 5723,
    "▁도착했어": 5724,
    "▁작아": 5725,
    "▁적립": 5726,
    "▁토익": 5727,
    "▁어찌": 5728,
    "▁왠": 5729,
    "▁대출": 5730,
    "▁목숨": 5731,
    "▁되겠습니까": 5732,
    "▁감사드리며": 5733,
    "▁염려": 5734,
    "▁어째서": 5735,
    "▁2018": 5736,
    "▁싶었지만": 5737,
    "▁떨어진": 5738,
    "▁마이클": 5739,
    "▁소셜": 5740,
    "▁핀": 5741,
    "▁첨부해": 5742,
    "▁완료되었습니다": 5743,
    "▁와이프": 5744,
    "▁계세요": 5745,
    "▁영원한": 5746,
    "▁체인": 5747,
    "▁결혼한": 5748,
    "▁났어": 5749,
    "▁멋져": 5750,
    "▁소음": 5751,
    "▁대가": 5752,
    "▁못했지만": 5753,
    "하였으나": 5754,
    "▁성공적": 5755,
    "▁팩스": 5756,
    "▁꼬리": 5757,
    "▁소개합니다": 5758,
    "▁자가": 5759,
    "▁필": 5760,
    "▁돌봐": 5761,
    "▁잃지": 5762,
    "▁친절하고": 5763,
    "▁여행자": 5764,
    "▁화나": 5765,
    "▁지나치": 5766,
    "▁성취": 5767,
    "▁했으나": 5768,
    "▁우편으로": 5769,
    "▁성공적인": 5770,
    "▁국수": 5771,
    "들보다": 5772,
    "▁부를": 5773,
    "▁거주": 5774,
    "▁세대": 5775,
    "▁일해야": 5776,
    "▁생각하니": 5777,
    "▁바르": 5778,
    "▁팀원들": 5779,
    "▁통신": 5780,
    "▁증상": 5781,
    "▁신이": 5782,
    "▁녹음": 5783,
    "▁인출": 5784,
    "▁줄이고": 5785,
    "▁확인했어요": 5786,
    "▁외식": 5787,
    "▁충분": 5788,
    "츠": 5789,
    "▁아마존에서": 5790,
    "▁시스템은": 5791,
    "▁전공하고": 5792,
    "▁영문": 5793,
    "▁차단": 5794,
    "▁누구의": 5795,
    "▁발이": 5796,
    "▁계약이": 5797,
    "▁합의": 5798,
    "▁제어": 5799,
    "▁디자인에": 5800,
    "▁서서": 5801,
    "▁군요": 5802,
    "▁갈색": 5803,
    "부로": 5804,
    "▁금일": 5805,
    "▁H": 5806,
    "▁여자에게": 5807,
    "▁호수": 5808,
    "▁있었기": 5809,
    "▁당일": 5810,
    "룰": 5811,
    "▁우수": 5812,
    "▁말해야": 5813,
    "7": 5814,
    "주일": 5815,
    "▁언젠가는": 5816,
    "아예": 5817,
    "▁았": 5818,
    "▁낳": 5819,
    "▁도서": 5820,
    "▁에이": 5821,
    "▁여긴": 5822,
    "▁대전": 5823,
    "▁감명": 5824,
    "▁사람이야": 5825,
    "▁거쳐": 5826,
    "▁본사": 5827,
    "▁공학": 5828,
    "▁대학생": 5829,
    "▁노력해야": 5830,
    "▁이뤄": 5831,
    "▁꼼꼼": 5832,
    "▁인턴": 5833,
    "제품": 5834,
    "▁보수": 5835,
    "▁받으실": 5836,
    "▁아웃": 5837,
    "주는": 5838,
    "▁1000": 5839,
    "▁구멍": 5840,
    "▁정산": 5841,
    "▁캠페인": 5842,
    "▁한명이": 5843,
    "▁손잡이": 5844,
    "▁중요해": 5845,
    "▁탄력": 5846,
    "▁만났을": 5847,
    "▁모형": 5848,
    "▁아닐": 5849,
    "▁똑똑한": 5850,
    "▁라이선스": 5851,
    "▁몸무게": 5852,
    "▁버섯": 5853,
    "▁액션": 5854,
    "▁근사": 5855,
    "▁열립니다": 5856,
    "▁진행되는": 5857,
    "▁좋네요": 5858,
    "▁있겠습니다": 5859,
    "▁워싱턴": 5860,
    "▁모션": 5861,
    "▁차가운": 5862,
    "▁pc": 5863,
    "▁어울릴": 5864,
    "▁도시락": 5865,
    "▁시장이": 5866,
    "▁놓치": 5867,
    "▁댄스": 5868,
    "▁인력": 5869,
    "▁성형": 5870,
    "▁발생해요": 5871,
    "▁위원회": 5872,
    "▁일하지": 5873,
    "▁이번주에": 5874,
    "▁사용했습니다": 5875,
    "▁태양": 5876,
    "▁도시에서": 5877,
    "▁담겨": 5878,
    "▁남에게": 5879,
    "▁조리": 5880,
    "지지": 5881,
    "▁바위": 5882,
    "▁소비자들": 5883,
    "▁자신에게": 5884,
    "▁앤": 5885,
    "▁성인이": 5886,
    "▁찍는": 5887,
    "▁당신네": 5888,
    "▁뼈": 5889,
    "▁이해합니다": 5890,
    "▁그림자": 5891,
    "▁버렸어요": 5892,
    "▁집중력": 5893,
    "▁인해서": 5894,
    "▁도시입니다": 5895,
    "▁가까워": 5896,
    "▁웃는": 5897,
    "역": 5898,
    "식으로": 5899,
    "▁폐기": 5900,
    "▁번씩": 5901,
    "▁설치되어": 5902,
    "▁극복": 5903,
    "▁t": 5904,
    "▁오사카": 5905,
    "▁대단한": 5906,
    "상을": 5907,
    "a": 5908,
    "▁캐": 5909,
    "▁간다고": 5910,
    "▁많다고": 5911,
    "버리고": 5912,
    "▁했다": 5913,
    "▁해보고": 5914,
    "▁접시": 5915,
    "▁뒤에서": 5916,
    "▁여행사": 5917,
    "▁일어나면": 5918,
    "상의": 5919,
    "▁아파트에": 5920,
    "▁행복하지": 5921,
    "▁미세": 5922,
    "행": 5923,
    "▁에이전시": 5924,
    "▁표면": 5925,
    "▁쓰기": 5926,
    "▁여자친구와": 5927,
    "▁터미널": 5928,
    "▁등급": 5929,
    "▁남동생이": 5930,
    "▁대한항공": 5931,
    "▁결혼할": 5932,
    "▁이용자": 5933,
    "▁용어": 5934,
    "▁풀고": 5935,
    "▁정지": 5936,
    "▁모임에": 5937,
    "▁연어": 5938,
    "▁토대": 5939,
    "▁출연": 5940,
    "▁실시": 5941,
    "▁여동생이": 5942,
    "▁넘치": 5943,
    "▁벗": 5944,
    "▁박람회": 5945,
    "▁분이": 5946,
    "개씩": 5947,
    "힐": 5948,
    "▁나사": 5949,
    "▁아닌데": 5950,
    "▁치는": 5951,
    "하기도": 5952,
    "▁높여": 5953,
    "▁식으로": 5954,
    "▁극장": 5955,
    "▁활": 5956,
    "박스": 5957,
    "▁불편함": 5958,
    "▁건가": 5959,
    "자의": 5960,
    "해줘": 5961,
    "▁맘": 5962,
    "▁K": 5963,
    "▁그중": 5964,
    "▁다녀온": 5965,
    "▁개봉": 5966,
    "▁뿐": 5967,
    "▁시간도": 5968,
    "▁쌀": 5969,
    "▁비만": 5970,
    "리고": 5971,
    "▁인천에서": 5972,
    "▁고양이가": 5973,
    "왔습니다": 5974,
    "▁공통": 5975,
    "▁내용으로": 5976,
    "▁김연아": 5977,
    "▁밀가루": 5978,
    "▁미스터": 5979,
    "▁관점": 5980,
    "▁삼겹살": 5981,
    "▁몰랐어": 5982,
    "▁가사": 5983,
    "▁고등학교에": 5984,
    "▁여자와": 5985,
    "▁고맙고": 5986,
    "▁만났던": 5987,
    "▁몹시": 5988,
    "▁스트레칭": 5989,
    "▁저녁식사": 5990,
    "▁바뀔": 5991,
    "▁나타납니다": 5992,
    "▁태그": 5993,
    "▁유머": 5994,
    "▁부담이": 5995,
    "▁끝나는": 5996,
    "▁하얀": 5997,
    "▁일어났습니다": 5998,
    "▁반갑습니다": 5999,
    "▁시카고": 6000,
    "▁매칭": 6001,
    "▁있을때": 6002,
    "▁연간": 6003,
    "▁샷": 6004,
    "▁볼링": 6005,
    "▁영광입니다": 6006,
    "▁명령": 6007,
    "▁흔히": 6008,
    "▁아름다워요": 6009,
    "▁달걀": 6010,
    "▁드려야": 6011,
    "▁아쉽게도": 6012,
    "▁주문했는데": 6013,
    "▁자살": 6014,
    "▁준비했습니다": 6015,
    "▁무례한": 6016,
    "▁필요하다면": 6017,
    "▁안돼요": 6018,
    "▁활용하여": 6019,
    "▁해라": 6020,
    "▁이해하는": 6021,
    "▁오피스": 6022,
    "▁놓치지": 6023,
    "▁전통적인": 6024,
    "▁써요": 6025,
    "탄": 6026,
    "▁않다면": 6027,
    "▁상황이에요": 6028,
    "▁관점에서": 6029,
    "▁싸인": 6030,
    "▁로마": 6031,
    "▁해주는": 6032,
    "▁월요일까지": 6033,
    "▁참고하시": 6034,
    "▁도착하기": 6035,
    "▁여러번": 6036,
    "▁보이기": 6037,
    "▁로드": 6038,
    "▁상관없이": 6039,
    "주면": 6040,
    "▁문제인지": 6041,
    "▁이유입니다": 6042,
    "▁이외에도": 6043,
    "▁처벌": 6044,
    "▁빠지": 6045,
    "냐": 6046,
    "▁상대적": 6047,
    "▁있는데요": 6048,
    "▁영화관에": 6049,
    "▁가만": 6050,
    "▁교": 6051,
    "▁나와요": 6052,
    "▁강조": 6053,
    "▁국가에서": 6054,
    "▁먹으면서": 6055,
    "▁도달": 6056,
    "▁짜": 6057,
    "▁창조": 6058,
    "▁간편": 6059,
    "해줄": 6060,
    "두": 6061,
    "▁가능하다": 6062,
    "▁돌아오면": 6063,
    "▁감사하고": 6064,
    "▁지진이": 6065,
    "▁진행하기": 6066,
    "▁첨부하여": 6067,
    "▁연락하지": 6068,
    "▁원하": 6069,
    "사의": 6070,
    "▁순서": 6071,
    "▁관계에": 6072,
    "▁이동할": 6073,
    "▁외모": 6074,
    "▁퍼": 6075,
    "▁김밥": 6076,
    "▁손이": 6077,
    "▁편리하": 6078,
    "▁합": 6079,
    "▁일자": 6080,
    "▁체크해": 6081,
    "▁좋아하게": 6082,
    "▁모험": 6083,
    "▁했다는": 6084,
    "▁구성원": 6085,
    "▁영어에": 6086,
    "▁맞추": 6087,
    "▁중단": 6088,
    "▁세관": 6089,
    "▁만족도": 6090,
    "▁서로에게": 6091,
    "▁얻어": 6092,
    "▁태국에": 6093,
    "같은": 6094,
    "▁선거": 6095,
    "마저": 6096,
    "▁이상하게": 6097,
    "된다면": 6098,
    "▁취해": 6099,
    "정보": 6100,
    "▁마련": 6101,
    "▁요청하는": 6102,
    "통": 6103,
    "▁읽은": 6104,
    "▁캘리포니아": 6105,
    "▁티비": 6106,
    "▁정도에": 6107,
    "▁역에서": 6108,
    "▁비롯": 6109,
    "되기": 6110,
    "▁등에": 6111,
    "▁어젯밤": 6112,
    "▁밤이": 6113,
    "▁기한": 6114,
    "▁보여주는": 6115,
    "▁물어봐": 6116,
    "▁멕시코": 6117,
    "▁영웅": 6118,
    "루": 6119,
    "▁서류에": 6120,
    "▁문장이": 6121,
    "▁돕는": 6122,
    "▁친척": 6123,
    "▁관계는": 6124,
    "주신": 6125,
    "▁마켓": 6126,
    "▁들어가면": 6127,
    "암": 6128,
    "▁얻는": 6129,
    "▁교육이": 6130,
    "▁경험해": 6131,
    "했다는": 6132,
    "▁말자": 6133,
    "▁핸드폰이": 6134,
    "▁상점": 6135,
    "▁선택을": 6136,
    "▁죽기": 6137,
    "▁클럽에": 6138,
    "▁위협": 6139,
    "▁만들었어": 6140,
    "▁휴대": 6141,
    "&": 6142,
    "▁생깁니다": 6143,
    "▁소프트웨어": 6144,
    "▁시리얼": 6145,
    "▁소시지": 6146,
    "▁겨우": 6147,
    "▁바쁠": 6148,
    "▁에너지를": 6149,
    "▁원격": 6150,
    "▁쉽습니다": 6151,
    "▁걸리지": 6152,
    "▁느꼈다": 6153,
    "▁누구입니까": 6154,
    "▁순서대로": 6155,
    "▁레시피": 6156,
    "▁모르겠네요": 6157,
    "▁않겠습니다": 6158,
    "▁금속": 6159,
    "▁많았어요": 6160,
    "▁가능합니까": 6161,
    "▁썼어요": 6162,
    "▁창의적인": 6163,
    "▁법률": 6164,
    "▁결심": 6165,
    "파": 6166,
    "▁마친": 6167,
    "▁프레임": 6168,
    "▁욕구": 6169,
    "▁기다려주세요": 6170,
    "▁기온": 6171,
    "▁인터넷에": 6172,
    "▁잔금": 6173,
    "▁남자친구랑": 6174,
    "▁승객": 6175,
    "▁살아갈": 6176,
    "▁잡는": 6177,
    "▁빠르고": 6178,
    "▁허": 6179,
    "나마": 6180,
    "▁움직이지": 6181,
    "했어": 6182,
    "▁표시된": 6183,
    "▁존재하는": 6184,
    "▁알려드립니다": 6185,
    "▁숲": 6186,
    "▁시작하면": 6187,
    "▁원하면": 6188,
    "▁늦어서": 6189,
    "▁공지": 6190,
    "▁독서": 6191,
    "▁전달할": 6192,
    "▁차트": 6193,
    "▁담당자에게": 6194,
    "▁특수": 6195,
    "▁들었다": 6196,
    "▁가본": 6197,
    "▁눈치": 6198,
    "▁집안일": 6199,
    "▁예로": 6200,
    "▁파일에": 6201,
    "▁밀어": 6202,
    "할때": 6203,
    "▁안된다": 6204,
    "▁날아": 6205,
    "▁비판": 6206,
    "▁하나인": 6207,
    "▁쌓고": 6208,
    "▁웃고": 6209,
    "▁예약할": 6210,
    "▁중으로": 6211,
    "▁표정이": 6212,
    "▁팀과": 6213,
    "▁리더십": 6214,
    "▁역사에": 6215,
    "▁송": 6216,
    "주년": 6217,
    "▁지쳐": 6218,
    "집": 6219,
    "▁공원에서": 6220,
    "으니": 6221,
    "만의": 6222,
    "▁하기때문에": 6223,
    "▁나니": 6224,
    "▁어른이": 6225,
    "되었어요": 6226,
    "▁지루": 6227,
    "▁죽이": 6228,
    "▁입지": 6229,
    "▁사본": 6230,
    "▁남자친구와": 6231,
    "▁대구에": 6232,
    "▁해외로": 6233,
    "▁불가": 6234,
    "▁출": 6235,
    "▁블로그": 6236,
    "▁독자": 6237,
    "▁멤버들": 6238,
    "▁이메일이": 6239,
    "▁부작용": 6240,
    "▁줄여": 6241,
    "▁보관해": 6242,
    "▁입력해": 6243,
    "▁귀사와": 6244,
    "▁변할": 6245,
    "▁목이": 6246,
    "달러입니다": 6247,
    "▁측면": 6248,
    "▁지연되": 6249,
    "▁다음은": 6250,
    "▁참여해": 6251,
    "▁좋아지": 6252,
    "▁상당": 6253,
    "▁뉴": 6254,
    "현": 6255,
    "▁답변해": 6256,
    "하지만": 6257,
    "▁발전에": 6258,
    "▁해결해": 6259,
    "▁터치": 6260,
    "▁이하": 6261,
    "▁메신저": 6262,
    "▁편리": 6263,
    "▁완벽하": 6264,
    "▁로그": 6265,
    "▁개최": 6266,
    "▁사람인": 6267,
    "▁걷는": 6268,
    "▁넓": 6269,
    "▁이중": 6270,
    "▁중복": 6271,
    "▁알아봐": 6272,
    "▁멋지": 6273,
    "▁영화관": 6274,
    "▁맥": 6275,
    "▁스타벅스": 6276,
    "▁비상": 6277,
    "▁알았는데": 6278,
    "▁아쉬워": 6279,
    "▁알려주실": 6280,
    "▁출퇴근": 6281,
    "▁투명": 6282,
    "▁복구": 6283,
    "▁고맙다": 6284,
    "▁굳이": 6285,
    "▁룸메이트": 6286,
    "▁잦은": 6287,
    "▁흘리": 6288,
    "▁첫인상": 6289,
    "▁가짜": 6290,
    "▁데뷔": 6291,
    "▁하루하루": 6292,
    "▁소풍": 6293,
    "▁판결": 6294,
    "▁좋겠네요": 6295,
    "▁탔어요": 6296,
    "▁네이버": 6297,
    "▁예비": 6298,
    "▁입술": 6299,
    "▁않았던": 6300,
    "▁부르는": 6301,
    "▁무시": 6302,
    "▁싫습니다": 6303,
    "▁걸렸습니다": 6304,
    "▁놀았어요": 6305,
    "▁35": 6306,
    "▁불가합니다": 6307,
    "▁활력": 6308,
    "▁적용되는": 6309,
    "▁레슨": 6310,
    "▁유창하게": 6311,
    "▁건축물": 6312,
    "▁폰": 6313,
    "▁보이네요": 6314,
    "만에": 6315,
    "▁확인하였습니다": 6316,
    "y": 6317,
    "▁소개하려고": 6318,
    "▁마스터": 6319,
    "▁사랑한다고": 6320,
    "▁지불해": 6321,
    "▁150": 6322,
    "▁대책": 6323,
    "▁편리한": 6324,
    "▁방문하고": 6325,
    "▁늘어": 6326,
    "▁송도": 6327,
    "▁생각하며": 6328,
    "▁방문한": 6329,
    "▁한국이": 6330,
    "▁냅니다": 6331,
    "▁않았다면": 6332,
    "▁통역사": 6333,
    "▁방수": 6334,
    "▁스타트업": 6335,
    "▁정리해서": 6336,
    "▁두려워": 6337,
    "겠지만": 6338,
    "▁발생하지": 6339,
    "▁습도": 6340,
    "▁고대": 6341,
    "▁보이고": 6342,
    "▁망고": 6343,
    "▁게임입니다": 6344,
    "▁분류": 6345,
    "▁술이": 6346,
    "▁무시하": 6347,
    "됐어요": 6348,
    "▁장소입니다": 6349,
    "▁따뜻해": 6350,
    "▁유치원에서": 6351,
    "▁결론": 6352,
    "▁확인한": 6353,
    "▁개성": 6354,
    "▁그림이": 6355,
    "▁유치원에": 6356,
    "▁부분입니다": 6357,
    "▁지문": 6358,
    "▁살게": 6359,
    "▁법인": 6360,
    "▁짓고": 6361,
    "▁복사": 6362,
    "k": 6363,
    "▁독도": 6364,
    "▁친구들도": 6365,
    "▁연결된": 6366,
    "▁점입니다": 6367,
    "▁않다는": 6368,
    "▁관심사": 6369,
    "▁들어가기": 6370,
    "▁예쁘다": 6371,
    "▁현장에서": 6372,
    "▁생각입니다": 6373,
    "▁정직": 6374,
    "▁떠나고": 6375,
    "▁있는지요": 6376,
    "▁양의": 6377,
    "▁말까지": 6378,
    "▁움직이는": 6379,
    "▁만료": 6380,
    "▁최선": 6381,
    "교": 6382,
    "▁달이": 6383,
    "▁오늘밤": 6384,
    "짝": 6385,
    "▁밤을": 6386,
    "셨어요": 6387,
    "▁담고": 6388,
    "▁음식물": 6389,
    "▁좋아하기": 6390,
    "▁철": 6391,
    "▁좋": 6392,
    "▁피곤할": 6393,
    "▁참여하는": 6394,
    "▁요청할": 6395,
    "▁마트": 6396,
    "▁통증이": 6397,
    "▁가다": 6398,
    "▁힘들지": 6399,
    "▁측면에서": 6400,
    "처리": 6401,
    "▁여행에": 6402,
    "▁고장이": 6403,
    "▁비교해": 6404,
    "▁업체에서": 6405,
    "▁젖": 6406,
    "▁샤워를": 6407,
    "▁매체": 6408,
    "▁편안": 6409,
    "▁털": 6410,
    "▁빌릴": 6411,
    "▁가지는": 6412,
    "▁즐기": 6413,
    "▁개수": 6414,
    "▁여성들": 6415,
    "▁안심": 6416,
    "▁핸드폰으로": 6417,
    "▁볼게": 6418,
    "▁좋아하니": 6419,
    "듯이": 6420,
    "▁국민들": 6421,
    "시가": 6422,
    "▁충족": 6423,
    "▁합쳐": 6424,
    "▁성공을": 6425,
    "▁한개": 6426,
    "▁기준이": 6427,
    "▁조회": 6428,
    "주시겠습니까": 6429,
    "▁가리": 6430,
    "▁침": 6431,
    "▁출입": 6432,
    "▁왔던": 6433,
    "▁L": 6434,
    "▁정비": 6435,
    "▁주문해": 6436,
    "▁선생님과": 6437,
    "▁잤어": 6438,
    "개만": 6439,
    "▁클래식": 6440,
    "▁입찰": 6441,
    "▁같고": 6442,
    "▁기뻤습니다": 6443,
    "▁맑은": 6444,
    "▁아시다시피": 6445,
    "▁원숭이": 6446,
    "▁낮잠": 6447,
    "▁이루어지지": 6448,
    "▁없습니까": 6449,
    "▁맞습니까": 6450,
    "▁예정인가요": 6451,
    "▁좋았던": 6452,
    "▁반도체": 6453,
    "▁않네요": 6454,
    "▁마십시오": 6455,
    "▁리본": 6456,
    "▁않겠어요": 6457,
    "▁햄": 6458,
    "▁즐거웠어요": 6459,
    "▁보낼게요": 6460,
    "▁유치": 6461,
    "▁있더라도": 6462,
    "▁양산": 6463,
    "▁소파": 6464,
    "▁변형": 6465,
    "▁시험은": 6466,
    "▁글씨": 6467,
    "▁올리는": 6468,
    "▁언제인가요": 6469,
    "▁뜻이에요": 6470,
    "▁다하겠습니다": 6471,
    "▁피곤해요": 6472,
    "▁사이드": 6473,
    "▁근처에서": 6474,
    "▁부정": 6475,
    "▁싫어해요": 6476,
    "▁태풍이": 6477,
    "▁조성": 6478,
    "▁참고해": 6479,
    "▁정거장": 6480,
    "▁기둥": 6481,
    "▁미친": 6482,
    "▁싫어해": 6483,
    "▁향기": 6484,
    "지요": 6485,
    "▁형이": 6486,
    "▁해준": 6487,
    "다지": 6488,
    "▁당했어요": 6489,
    "▁롤": 6490,
    "▁갖추고": 6491,
    "▁외롭": 6492,
    "▁생각나": 6493,
    "하다": 6494,
    "▁든다": 6495,
    "▁학": 6496,
    "▁등장": 6497,
    "▁123": 6498,
    "▁자질": 6499,
    "▁드리지": 6500,
    "▁과거에": 6501,
    "▁탑": 6502,
    "▁얘기하는": 6503,
    "니깐": 6504,
    "▁방법이에요": 6505,
    "▁직업에": 6506,
    "▁받으려": 6507,
    "▁들여": 6508,
    "▁제기": 6509,
    "▁언급한": 6510,
    "▁이외에": 6511,
    "▁박사": 6512,
    "▁유래": 6513,
    "▁효과적인": 6514,
    "▁있지요": 6515,
    "▁문이": 6516,
    "▁영혼": 6517,
    "▁지금처럼": 6518,
    "▁시작하기": 6519,
    "▁좋은데": 6520,
    "▁애들": 6521,
    "▁구역": 6522,
    "▁경고": 6523,
    "▁가족에게": 6524,
    "▁연구소": 6525,
    "▁확인하기": 6526,
    "▁해주고": 6527,
    "▁도쿄에서": 6528,
    "매": 6529,
    "발": 6530,
    "▁남한": 6531,
    "▁숨을": 6532,
    "▁제주도에서": 6533,
    "▁변화에": 6534,
    "▁시에는": 6535,
    "▁중독": 6536,
    "▁전체에": 6537,
    "▁단계에서": 6538,
    "▁운동이": 6539,
    "▁것이니": 6540,
    "▁철학": 6541,
    "▁하라": 6542,
    "▁이번이": 6543,
    "▁물어본": 6544,
    "▁모임이": 6545,
    "▁그래야": 6546,
    "▁입장에서": 6547,
    "거리": 6548,
    "▁관찰": 6549,
    "▁굴": 6550,
    "▁안부": 6551,
    "▁선택이": 6552,
    "▁아티스트": 6553,
    "▁예시": 6554,
    "▁필요한지": 6555,
    "▁업체와": 6556,
    "▁적성": 6557,
    "▁친구로": 6558,
    "곡": 6559,
    "▁후의": 6560,
    "▁목록에": 6561,
    "▁선물이": 6562,
    "▁강점": 6563,
    "▁설레": 6564,
    "▁소속": 6565,
    "▁정리해": 6566,
    "▁진입": 6567,
    "희": 6568,
    "▁미국과": 6569,
    "▁준비하는": 6570,
    "▁흥미롭": 6571,
    "▁불이": 6572,
    "학기": 6573,
    "▁이베이": 6574,
    "▁마셔": 6575,
    "▁요가": 6576,
    "▁한강": 6577,
    "▁행복이": 6578,
    "이니까": 6579,
    "▁구름": 6580,
    "▁목욕": 6581,
    "▁교수": 6582,
    "▁해산물": 6583,
    "▁넣": 6584,
    "▁메모": 6585,
    "되": 6586,
    "▁건물이": 6587,
    "▁예정이": 6588,
    "▁대여": 6589,
    "▁미만": 6590,
    "▁n": 6591,
    "▁획득": 6592,
    "▁해야할": 6593,
    "▁위반": 6594,
    "▁여인": 6595,
    "▁취한": 6596,
    "▁대학생이": 6597,
    "주실래요": 6598,
    "▁지속해": 6599,
    "▁모터": 6600,
    "▁좋기": 6601,
    "▁만들지": 6602,
    "▁무거운": 6603,
    "▁오리": 6604,
    "▁자원봉사": 6605,
    "▁정기": 6606,
    "▁마술": 6607,
    "▁꾸준": 6608,
    "▁체험을": 6609,
    "▁보존": 6610,
    "▁동물원": 6611,
    "▁스터디": 6612,
    "▁매너": 6613,
    "▁금연": 6614,
    "▁습": 6615,
    "▁핸드": 6616,
    "▁버려": 6617,
    "▁패스트푸드": 6618,
    "금을": 6619,
    "▁누군지": 6620,
    "▁늦잠": 6621,
    "▁로맨틱": 6622,
    "▁인공지능": 6623,
    "▁바이올린": 6624,
    "▁이슬람": 6625,
    "▁캠퍼스": 6626,
    "▁충돌": 6627,
    "▁은혜": 6628,
    "▁스카이프": 6629,
    "▁시티": 6630,
    "▁저녁으로": 6631,
    "▁시술": 6632,
    "▁어디입니까": 6633,
    "▁익숙하지": 6634,
    "▁끔찍한": 6635,
    "▁알고싶어요": 6636,
    "▁좋을까": 6637,
    "▁넣으면": 6638,
    "▁키울": 6639,
    "▁강연": 6640,
    "▁기다리겠습니다": 6641,
    "▁멋있는": 6642,
    "▁베이스": 6643,
    "▁행복했습니다": 6644,
    "▁공동체": 6645,
    "▁레이스": 6646,
    "▁유전자": 6647,
    "▁풍선": 6648,
    "▁뒷면": 6649,
    "▁먹으려고": 6650,
    "▁회전": 6651,
    "▁모래": 6652,
    "▁명소": 6653,
    "▁이곳이": 6654,
    "▁받으세요": 6655,
    "▁자막": 6656,
    "▁듯합니다": 6657,
    "▁없기때문에": 6658,
    "체": 6659,
    "▁아트": 6660,
    "▁얼마인가요": 6661,
    "▁심장이": 6662,
    "▁공통점": 6663,
    "▁인종": 6664,
    "▁같다는": 6665,
    "▁드리기": 6666,
    "▁부어": 6667,
    "▁이집트": 6668,
    "▁도착합니다": 6669,
    "▁나가야": 6670,
    "▁행복했어요": 6671,
    "▁알림": 6672,
    "▁후원": 6673,
    "▁마약": 6674,
    "▁최상": 6675,
    "▁피우": 6676,
    "▁한국인들": 6677,
    "▁잎": 6678,
    "▁금요일까지": 6679,
    "▁한번씩": 6680,
    "하기를": 6681,
    "▁계": 6682,
    "▁본다면": 6683,
    "▁홈": 6684,
    "▁볼까": 6685,
    "▁나아가": 6686,
    "▁잠금": 6687,
    "▁마시지": 6688,
    "해보세요": 6689,
    "▁방문하여": 6690,
    "▁머": 6691,
    "▁경로": 6692,
    "▁나고": 6693,
    "▁메뉴입니다": 6694,
    "력이": 6695,
    "▁발명": 6696,
    "▁거니까": 6697,
    "▁내용이에요": 6698,
    "▁저에": 6699,
    "▁졌어요": 6700,
    "▁번역가": 6701,
    "▁했다면": 6702,
    "▁차려": 6703,
    "▁아름답고": 6704,
    "▁하시나요": 6705,
    "▁다행히도": 6706,
    "▁받았을": 6707,
    "▁내리는": 6708,
    "▁톤": 6709,
    "▁가져야": 6710,
    "▁되는것이": 6711,
    "▁그전에": 6712,
    "▁다루는": 6713,
    "▁뉴질랜드": 6714,
    "▁피해자": 6715,
    "일을": 6716,
    "▁참석하": 6717,
    "새": 6718,
    "▁경찰관": 6719,
    "▁빛나는": 6720,
    "▁평가를": 6721,
    "▁때입니다": 6722,
    "▁끌": 6723,
    "설": 6724,
    "▁대화하는": 6725,
    "▁엔": 6726,
    "▁매장에": 6727,
    "▁두명": 6728,
    "▁2000": 6729,
    "▁제약": 6730,
    "제를": 6731,
    "▁목적이": 6732,
    "▁침대에서": 6733,
    "▁달리기": 6734,
    "▁번역해": 6735,
    "▁종합": 6736,
    "하였고": 6737,
    "▁푸": 6738,
    "▁한쪽": 6739,
    "▁안될": 6740,
    "▁뉴욕에서": 6741,
    "▁건강이": 6742,
    "▁워": 6743,
    "쉬": 6744,
    "▁꿈입니다": 6745,
    "▁화면에": 6746,
    "▁정기적": 6747,
    "▁테러": 6748,
    "▁진단": 6749,
    "▁교정": 6750,
    "▁먹어서": 6751,
    "▁헌신": 6752,
    "▁예뻐": 6753,
    "▁후면": 6754,
    "▁골드": 6755,
    "▁인보이스에": 6756,
    "▁대회에": 6757,
    "으니까": 6758,
    "개로": 6759,
    "▁외국에서": 6760,
    "▁주기를": 6761,
    "림": 6762,
    "▁사업에": 6763,
    "▁조율": 6764,
    "19": 6765,
    "드리도록": 6766,
    "▁있었다고": 6767,
    "감이": 6768,
    "▁방문하는": 6769,
    "▁순간이": 6770,
    "▁주택": 6771,
    "kg": 6772,
    "▁문학": 6773,
    "▁냉장고에": 6774,
    "▁배워야": 6775,
    "▁말라": 6776,
    "▁없애": 6777,
    "▁삽입": 6778,
    "▁가족들이": 6779,
    "▁계약서에": 6780,
    "▁성향": 6781,
    "▁우울": 6782,
    "▁어른들": 6783,
    "▁추구": 6784,
    "일에서": 6785,
    "▁위치에": 6786,
    "▁감시": 6787,
    "▁더러운": 6788,
    "▁클": 6789,
    "▁내리": 6790,
    "▁시공": 6791,
    "▁멋있어": 6792,
    "▁생각하기": 6793,
    "▁방과": 6794,
    "미터": 6795,
    "▁통화할": 6796,
    "▁올해에": 6797,
    "▁받아들이": 6798,
    "▁은퇴": 6799,
    "▁디자인과": 6800,
    "인치": 6801,
    "쭉": 6802,
    "▁취급": 6803,
    "▁무엇일까": 6804,
    "▁조작": 6805,
    "▁교훈": 6806,
    "▁발명품": 6807,
    "▁캔": 6808,
    "▁밝고": 6809,
    "▁사운드": 6810,
    "▁압니다": 6811,
    "▁아뇨": 6812,
    "▁탄생": 6813,
    "▁장갑": 6814,
    "▁간격": 6815,
    "▁받았던": 6816,
    "▁겸": 6817,
    "▁오징어": 6818,
    "▁프라이팬": 6819,
    "▁시합": 6820,
    "▁설명하겠습니다": 6821,
    "▁참고하세요": 6822,
    "▁없었던": 6823,
    "▁주문번호": 6824,
    "▁장학금": 6825,
    "▁경비": 6826,
    "▁달라질": 6827,
    "▁있겠어요": 6828,
    "▁있듯이": 6829,
    "▁배웠어요": 6830,
    "▁생각합니까": 6831,
    "▁열매": 6832,
    "▁원하시면": 6833,
    "▁아이돌": 6834,
    "▁주문하겠습니다": 6835,
    "▁분들이": 6836,
    "▁연료": 6837,
    "▁기념품": 6838,
    "하셔서": 6839,
    "▁연락하세요": 6840,
    "▁다닙니다": 6841,
    "▁넘어가": 6842,
    "▁트리": 6843,
    "▁바이러스": 6844,
    "▁필요하신": 6845,
    "▁플러스": 6846,
    "▁드시면": 6847,
    "▁음주": 6848,
    "▁하셨습니다": 6849,
    "불": 6850,
    "년째": 6851,
    "▁자려고": 6852,
    "▁지급해야": 6853,
    "▁소중함": 6854,
    "▁줄일": 6855,
    "주고": 6856,
    "▁마음속에": 6857,
    "▁비슷하": 6858,
    "▁와요": 6859,
    "▁막기": 6860,
    "▁제출해야": 6861,
    "▁측": 6862,
    "▁승": 6863,
    "▁재단": 6864,
    "▁하겠어요": 6865,
    "▁기사에": 6866,
    "▁날이야": 6867,
    "졌으면": 6868,
    "▁공유하는": 6869,
    "▁예수": 6870,
    "▁친척들": 6871,
    "▁달라서": 6872,
    "▁프랑스에": 6873,
    "▁보유": 6874,
    "▁알려주면": 6875,
    "▁검은": 6876,
    "후에": 6877,
    "▁조합": 6878,
    "▁세워": 6879,
    "▁풀리": 6880,
    "▁이태원": 6881,
    "▁음식으로": 6882,
    "▁알지만": 6883,
    "▁손님들": 6884,
    "▁세우": 6885,
    "▁레이": 6886,
    "▁갈비": 6887,
    "근": 6888,
    "▁우아": 6889,
    "▁예수님": 6890,
    "▁생겼다": 6891,
    "▁려고": 6892,
    "▁다가오는": 6893,
    "▁잡을": 6894,
    "▁세관에": 6895,
    "▁끝내야": 6896,
    "▁멀지": 6897,
    "▁염색": 6898,
    "▁존경": 6899,
    "▁먹었다": 6900,
    "유의": 6901,
    "▁충고": 6902,
    "▁자신과": 6903,
    "▁설명할": 6904,
    "▁음식이에요": 6905,
    "▁추천하": 6906,
    "▁나빠": 6907,
    "드렸습니다": 6908,
    "시키고": 6909,
    "▁진한": 6910,
    "▁심플": 6911,
    "▁보실": 6912,
    "▁놓아": 6913,
    "▁면에서": 6914,
    "▁홈페이지에": 6915,
    "▁권한": 6916,
    "▁맞은편에": 6917,
    "▁바빠": 6918,
    "▁행동으로": 6919,
    "▁미팅에": 6920,
    "▁집까지": 6921,
    "심이": 6922,
    "▁인식이": 6923,
    "▁마시면": 6924,
    "▁조개": 6925,
    "▁꿈꾸": 6926,
    "▁환자들": 6927,
    "▁정해": 6928,
    "▁확인하는": 6929,
    "▁해외에서": 6930,
    "▁느낀다": 6931,
    "받았습니다": 6932,
    "▁캠핑장": 6933,
    "께서": 6934,
    "▁홍콩에": 6935,
    "학년이": 6936,
    "째": 6937,
    "▁일본인": 6938,
    "▁볼거리": 6939,
    "▁진행하면": 6940,
    "▁부동산": 6941,
    "▁커플이": 6942,
    "▁살인": 6943,
    "▁높이는": 6944,
    "▁바라보": 6945,
    "등에": 6946,
    "▁연동": 6947,
    "▁불리": 6948,
    "▁야": 6949,
    "▁치수": 6950,
    "▁시민들": 6951,
    "▁문화적": 6952,
    "▁자산": 6953,
    "▁노력은": 6954,
    "▁설명서": 6955,
    "▁올라갈": 6956,
    "▁요청이": 6957,
    "▁불편하": 6958,
    "▁수단": 6959,
    "▁유사": 6960,
    "▁기숙사": 6961,
    "▁수프": 6962,
    "K": 6963,
    "▁누르": 6964,
    "▁물품이": 6965,
    "▁연결하는": 6966,
    "▁편의": 6967,
    "▁빚": 6968,
    "▁산에": 6969,
    "▁일이야": 6970,
    "▁수원": 6971,
    "달라고": 6972,
    "▁그리는": 6973,
    "처": 6974,
    "▁전망": 6975,
    "▁인내심": 6976,
    "▁보유하": 6977,
    "▁국민": 6978,
    "▁황": 6979,
    "▁있기에": 6980,
    "▁슬": 6981,
    "▁추가해": 6982,
    "습니까": 6983,
    "열": 6984,
    "▁생각으로": 6985,
    "▁핵": 6986,
    "▁내기": 6987,
    "▁신분증": 6988,
    "▁물리": 6989,
    "▁정상적인": 6990,
    "▁코리아": 6991,
    "▁동양": 6992,
    "▁보여준": 6993,
    "▁선생님께": 6994,
    "것": 6995,
    "▁혼란": 6996,
    "▁방식이": 6997,
    "▁몽골": 6998,
    "▁모시": 6999,
    "▁스파게티": 7000,
    "▁김치찌개": 7001,
    "▁동의합니다": 7002,
    "▁은행이": 7003,
    "▁설거지": 7004,
    "▁색채": 7005,
    "▁만나야": 7006,
    "▁숙": 7007,
    "▁드립니": 7008,
    "▁먹자": 7009,
    "▁다이아몬드": 7010,
    "▁봤다": 7011,
    "▁샴푸": 7012,
    "▁인턴십": 7013,
    "▁좁은": 7014,
    "▁하룻밤": 7015,
    "▁매일매일": 7016,
    "▁엑셀": 7017,
    "▁윈도우": 7018,
    "▁팀워크": 7019,
    "▁상호작용": 7020,
    "▁지닌": 7021,
    "▁도착하자마자": 7022,
    "▁힘들었지만": 7023,
    "▁맞죠": 7024,
    "▁상관없": 7025,
    "▁생각하시나요": 7026,
    "▁지친": 7027,
    "▁아름답습니다": 7028,
    "▁바랄게": 7029,
    "▁적용됩니다": 7030,
    "▁진행하겠습니다": 7031,
    "▁다쳐서": 7032,
    "▁안락사": 7033,
    "▁있거나": 7034,
    "▁그러던": 7035,
    "▁좋을까요": 7036,
    "▁말씀하신": 7037,
    "▁청년": 7038,
    "▁폭포": 7039,
    "▁맛은": 7040,
    "▁있으나": 7041,
    "▁손목": 7042,
    "▁의미로": 7043,
    "▁불쾌": 7044,
    "▁있겠지만": 7045,
    "▁작품들": 7046,
    "▁어느날": 7047,
    "▁사회에": 7048,
    "▁패드": 7049,
    "▁상대방에게": 7050,
    "▁소매": 7051,
    "▁걱정이에요": 7052,
    "▁틈": 7053,
    "▁의향": 7054,
    "▁살아야": 7055,
    "▁활동이": 7056,
    "▁초점": 7057,
    "르고": 7058,
    "▁거기까지": 7059,
    "▁요인": 7060,
    "▁되었나요": 7061,
    "▁탓": 7062,
    "▁동물이": 7063,
    "▁송금할": 7064,
    "▁배출": 7065,
    "▁초밥": 7066,
    "▁생기지": 7067,
    "▁기어": 7068,
    "▁유심": 7069,
    "▁신중": 7070,
    "▁마닐라에서": 7071,
    "▁중이며": 7072,
    "▁설득": 7073,
    "▁모여서": 7074,
    "▁성격입니다": 7075,
    "▁마닐라에": 7076,
    "▁여러분께": 7077,
    "▁활동에": 7078,
    "▁도와주고": 7079,
    "▁막아": 7080,
    "줄래요": 7081,
    "▁드려도": 7082,
    "백": 7083,
    "▁닭고기": 7084,
    "▁처음엔": 7085,
    "▁오니": 7086,
    "▁유발": 7087,
    "▁가져와": 7088,
    "▁물어봐도": 7089,
    "▁뿌려": 7090,
    "▁거라면": 7091,
    "▁지원해": 7092,
    "▁사랑하지": 7093,
    "▁텐데요": 7094,
    "▁들어오는": 7095,
    "▁다할": 7096,
    "▁배경으로": 7097,
    "▁껍질": 7098,
    "▁출신": 7099,
    "▁지키는": 7100,
    "▁인천공항": 7101,
    "▁모양이": 7102,
    "▁이루어진": 7103,
    "▁힘들다": 7104,
    "▁화사": 7105,
    "▁일해요": 7106,
    "▁보충": 7107,
    "▁여섯": 7108,
    "▁그러는": 7109,
    "▁뜻이": 7110,
    "▁둘째로": 7111,
    "▁지하철역": 7112,
    "▁물어보는": 7113,
    "▁G": 7114,
    "▁논쟁": 7115,
    "▁표현한": 7116,
    "▁일어나고": 7117,
    "▁인공": 7118,
    "▁행복하기": 7119,
    "속": 7120,
    "▁처리할": 7121,
    "▁않는다는": 7122,
    "▁스캔": 7123,
    "▁사귀": 7124,
    "▁최초의": 7125,
    "▁분해": 7126,
    "▁사실입니다": 7127,
    "인에게": 7128,
    "▁저축": 7129,
    "▁불과": 7130,
    "▁크리스마스에": 7131,
    "▁다르다": 7132,
    "▁말해줄": 7133,
    "▁쉬어": 7134,
    "▁오븐": 7135,
    "▁줄이기": 7136,
    "e": 7137,
    "▁쪽으로": 7138,
    "▁것이기": 7139,
    "▁단어들": 7140,
    "▁알려줄게": 7141,
    "▁필요해서": 7142,
    "▁언니와": 7143,
    "서는": 7144,
    "킬": 7145,
    "▁막을": 7146,
    "▁차질": 7147,
    "▁이내": 7148,
    "▁시민": 7149,
    "▁연출": 7150,
    "액": 7151,
    "▁인하": 7152,
    "▁지게": 7153,
    "▁러": 7154,
    "▁명확": 7155,
    "시로": 7156,
    "▁복장": 7157,
    "절": 7158,
    "▁보석": 7159,
    "▁단어는": 7160,
    "▁디테일": 7161,
    "▁접할": 7162,
    "▁기사에서": 7163,
    "▁선박": 7164,
    "하다는": 7165,
    "물이": 7166,
    "▁마닐라": 7167,
    "▁싫다": 7168,
    "▁어떤것이": 7169,
    "춘": 7170,
    "▁확률이": 7171,
    "▁잡은": 7172,
    "▁수상": 7173,
    "▁바뀌": 7174,
    "▁떠난": 7175,
    "▁길거리": 7176,
    "▁일부는": 7177,
    "▁확인해서": 7178,
    "▁영국에": 7179,
    "▁버릴": 7180,
    "▁콘서트에": 7181,
    "▁학점": 7182,
    "▁프로그램에서": 7183,
    "▁어서": 7184,
    "▁게임에서": 7185,
    "▁하이": 7186,
    "L": 7187,
    "▁기업이": 7188,
    "▁주문에": 7189,
    "▁수정이": 7190,
    "▁스케이트": 7191,
    "▁실시간": 7192,
    "▁팀원": 7193,
    "▁권한이": 7194,
    "▁사용자들": 7195,
    "▁거기에서": 7196,
    "▁원인이": 7197,
    "▁북한이": 7198,
    "▁케빈": 7199,
    "▁협회": 7200,
    "▁볶": 7201,
    "▁태워": 7202,
    "▁지침": 7203,
    "왔던": 7204,
    "▁서핑": 7205,
    "▁있잖아": 7206,
    "▁다녀왔어": 7207,
    "▁궁": 7208,
    "▁계정이": 7209,
    "▁컨트롤": 7210,
    "▁핼러윈": 7211,
    "▁붉은": 7212,
    "·": 7213,
    "▁끓여": 7214,
    "▁숟가락": 7215,
    "▁에펠탑": 7216,
    "▁왔고": 7217,
    "▁전자레인지": 7218,
    "▁있겠습니까": 7219,
    "▁레몬": 7220,
    "▁빨강": 7221,
    "▁클레임": 7222,
    "▁스킬": 7223,
    "▁직무": 7224,
    "▁싶었는데": 7225,
    "▁오페라": 7226,
    "▁세럼": 7227,
    "▁절반": 7228,
    "▁몸매": 7229,
    "▁돌아왔습니다": 7230,
    "▁클렌징": 7231,
    "▁트러블": 7232,
    "▁찍었습니다": 7233,
    "▁분홍색": 7234,
    "▁ABC": 7235,
    "▁않았나요": 7236,
    "▁발표하겠습니다": 7237,
    "▁발송하겠습니다": 7238,
    "▁있었는지": 7239,
    "▁비슷합니다": 7240,
    "▁디즈니": 7241,
    "▁맞습니다": 7242,
    "▁감사해": 7243,
    "▁느꼈어요": 7244,
    "▁읽었어요": 7245,
    "▁고추": 7246,
    "▁폐기물": 7247,
    "▁사탕": 7248,
    "▁추출물": 7249,
    "▁작문": 7250,
    "개월간": 7251,
    "▁물류": 7252,
    "▁치유": 7253,
    "▁아저씨": 7254,
    "▁길드": 7255,
    "▁들었던": 7256,
    "▁클래스": 7257,
    "▁전액": 7258,
    "▁좌우명": 7259,
    "▁가능하며": 7260,
    "▁확인하시고": 7261,
    "▁왔는지": 7262,
    "▁사업자": 7263,
    "골": 7264,
    "▁필수적인": 7265,
    "인분": 7266,
    "▁축복": 7267,
    "▁편안함": 7268,
    "▁쳐": 7269,
    "▁abc": 7270,
    "▁걸까": 7271,
    "▁어렵지": 7272,
    "▁불편한": 7273,
    "▁가시면": 7274,
    "▁칼로리": 7275,
    "▁분들께": 7276,
    "▁일이라고": 7277,
    "▁없지": 7278,
    "▁손실": 7279,
    "▁해줘요": 7280,
    "▁공무원이": 7281,
    "▁내부에": 7282,
    "▁작동하지": 7283,
    "▁성경": 7284,
    "▁환승": 7285,
    "▁변경해": 7286,
    "▁환경이": 7287,
    "▁작업자": 7288,
    "▁종이에": 7289,
    "▁희": 7290,
    "▁해상도": 7291,
    "스트": 7292,
    "▁환급": 7293,
    "▁공주": 7294,
    "▁제시한": 7295,
    "본적이": 7296,
    "▁마트에서": 7297,
    "▁르": 7298,
    "▁일하면서": 7299,
    "▁결과물": 7300,
    "▁등록금": 7301,
    "▁나오고": 7302,
    "▁준비했어요": 7303,
    "▁있었다면": 7304,
    "▁크지": 7305,
    "▁용도": 7306,
    "▁어렵고": 7307,
    "▁생각이에요": 7308,
    "▁호텔이": 7309,
    "▁요즘엔": 7310,
    "까요": 7311,
    "▁식당에": 7312,
    "▁안쪽": 7313,
    "▁성함": 7314,
    "▁감사하게": 7315,
    "었다": 7316,
    "▁발주서": 7317,
    "▁비전": 7318,
    "▁ip": 7319,
    "면서도": 7320,
    "▁원리": 7321,
    "▁힘들어서": 7322,
    "▁귀가": 7323,
    "▁문의해": 7324,
    "▁으니": 7325,
    "▁한국인이": 7326,
    "▁붙": 7327,
    "▁처음이라": 7328,
    "▁넣은": 7329,
    "▁받았다": 7330,
    "▁제니": 7331,
    "▁해줍니다": 7332,
    "▁더운": 7333,
    "었지만": 7334,
    "▁공룡": 7335,
    "▁주도록": 7336,
    "▁l": 7337,
    "▁도장": 7338,
    "▁보아": 7339,
    "▁보냈다": 7340,
    "▁그만두": 7341,
    "▁주겠다": 7342,
    "값": 7343,
    "▁빛이": 7344,
    "▁돌아온": 7345,
    "▁달라는": 7346,
    "▁아이와": 7347,
    "▁00": 7348,
    "▁태": 7349,
    "▁케이": 7350,
    "▁의해서": 7351,
    "▁권장": 7352,
    "▁두바이": 7353,
    "▁평온": 7354,
    "쯤에": 7355,
    "▁돌아가는": 7356,
    "위에": 7357,
    "년부터": 7358,
    "▁연락하는": 7359,
    "▁변경할": 7360,
    "▁최초": 7361,
    "▁가을에": 7362,
    "▁출산": 7363,
    "▁이메일에": 7364,
    "▁자랑하": 7365,
    "▁노래방": 7366,
    "▁일본식": 7367,
    "▁인증서": 7368,
    "▁빌리": 7369,
    "▁사이가": 7370,
    "n": 7371,
    "에선": 7372,
    "▁확인부탁": 7373,
    "▁고르": 7374,
    "▁원료": 7375,
    "▁알아볼": 7376,
    "▁방어": 7377,
    "▁가수가": 7378,
    "▁현명": 7379,
    "▁음악이": 7380,
    "일입니다": 7381,
    "▁작업에": 7382,
    "▁선명": 7383,
    "나무": 7384,
    "▁사랑한다는": 7385,
    "▁않겠다": 7386,
    "▁수신": 7387,
    "▁명시": 7388,
    "▁눈가": 7389,
    "▁설치할": 7390,
    "▁오로": 7391,
    "▁회의에서": 7392,
    "▁길러": 7393,
    "▁려": 7394,
    "▁이쪽": 7395,
    "▁결점": 7396,
    "▁틀": 7397,
    "▁내역": 7398,
    "▁예약해": 7399,
    "층에서": 7400,
    "▁깨지": 7401,
    "▁생존": 7402,
    "▁주저": 7403,
    "▁프": 7404,
    "▁중간고사": 7405,
    "▁툴": 7406,
    "▁미쳐": 7407,
    "▁코미디": 7408,
    "▁쌓여": 7409,
    "▁옛": 7410,
    "▁시작했어": 7411,
    "▁판타지": 7412,
    "▁휴지": 7413,
    "명과": 7414,
    "대가": 7415,
    "▁리얼사운드": 7416,
    "▁옥수수": 7417,
    "▁분리수거": 7418,
    "▁놀이기구": 7419,
    "▁멀티": 7420,
    "▁다행이에요": 7421,
    "▁구현": 7422,
    "▁놀라운": 7423,
    "▁소요됩니다": 7424,
    "▁시작하겠습니다": 7425,
    "▁펜팔": 7426,
    "▁유출": 7427,
    "▁들었는데": 7428,
    "▁드론": 7429,
    "▁마중": 7430,
    "▁살았습니다": 7431,
    "▁원치": 7432,
    "▁선호하는": 7433,
    "▁무지개": 7434,
    "▁언": 7435,
    "▁없던": 7436,
    "▁했잖아": 7437,
    "▁속담": 7438,
    "▁남습니다": 7439,
    "▁생각하나요": 7440,
    "▁트럭": 7441,
    "▁전화할게요": 7442,
    "▁않니": 7443,
    "▁보시면": 7444,
    "▁발송할": 7445,
    "▁피고인": 7446,
    "▁실례합니다만": 7447,
    "▁썩": 7448,
    "▁고소한": 7449,
    "▁스페인어": 7450,
    "▁현상을": 7451,
    "▁연락할게요": 7452,
    "▁소량": 7453,
    "▁느껴요": 7454,
    "▁되네요": 7455,
    "▁좋았다": 7456,
    "▁행사가": 7457,
    "▁미용실": 7458,
    "▁달리는": 7459,
    "▁먹방입니다": 7460,
    "▁베이징": 7461,
    "▁기술력": 7462,
    "▁돌아와서": 7463,
    "▁진행했습니다": 7464,
    "▁덕": 7465,
    "▁폐지": 7466,
    "▁국적": 7467,
    "▁성공한": 7468,
    "▁음성": 7469,
    "▁해운대": 7470,
    "▁무용": 7471,
    "▁잠자리에": 7472,
    "▁들어가야": 7473,
    "▁보내도": 7474,
    "글": 7475,
    "▁되는건가요": 7476,
    "▁고려하여": 7477,
    "▁마음대로": 7478,
    "O": 7479,
    "▁편히": 7480,
    "▁요청했어요": 7481,
    "▁직원에게": 7482,
    "▁사랑해요": 7483,
    "▁예약했어요": 7484,
    "▁반면에": 7485,
    "효율적인": 7486,
    "▁이외": 7487,
    "바": 7488,
    "▁경기에서": 7489,
    "▁맞이하": 7490,
    "▁볼까요": 7491,
    "팀": 7492,
    "▁종목": 7493,
    "▁게다가": 7494,
    "▁지기": 7495,
    "▁벨": 7496,
    "▁치우": 7497,
    "편이": 7498,
    "▁못했던": 7499,
    "건은": 7500,
    "▁하는건가요": 7501,
    "▁깔": 7502,
    "▁부자가": 7503,
    "▁예민": 7504,
    "T": 7505,
    "▁유지할": 7506,
    "▁결함": 7507,
    "▁마시기": 7508,
    "▁진행합니다": 7509,
    "▁톰": 7510,
    "▁상품으로": 7511,
    "곳은": 7512,
    "▁섹시": 7513,
    "▁걱정돼": 7514,
    "▁걱정하는": 7515,
    "▁모델이": 7516,
    "▁활용한": 7517,
    "▁중학생": 7518,
    "▁뽑": 7519,
    "▁홍콩에서": 7520,
    "▁이들": 7521,
    "내에서": 7522,
    "▁마신": 7523,
    "▁측에서": 7524,
    "▁노트": 7525,
    "▁그런데도": 7526,
    "▁좋으": 7527,
    "▁천사": 7528,
    "▁만들었다": 7529,
    "▁외에도": 7530,
    "공": 7531,
    "▁인생이": 7532,
    "▁팔지": 7533,
    "▁모를": 7534,
    "▁이불": 7535,
    "▁이루어지는": 7536,
    "▁독일에서": 7537,
    "겠다는": 7538,
    "▁컨": 7539,
    "▁규격": 7540,
    "▁시작하고": 7541,
    "▁갤러리": 7542,
    "▁차분": 7543,
    "▁시키는": 7544,
    "▁졸업한": 7545,
    "▁운동장": 7546,
    "▁전주": 7547,
    "▁요리하는": 7548,
    "▁습관이": 7549,
    "▁올라": 7550,
    "▁되어요": 7551,
    "▁없었기": 7552,
    "▁호주에": 7553,
    "▁자면": 7554,
    "시간에": 7555,
    "▁이야기하는": 7556,
    "▁걸린다": 7557,
    "▁호의": 7558,
    "중으로": 7559,
    "▁남자에게": 7560,
    "보단": 7561,
    "▁인체": 7562,
    "▁하나님의": 7563,
    "▁열린": 7564,
    "▁교통이": 7565,
    "▁뒷": 7566,
    "▁호환": 7567,
    "일간": 7568,
    "▁청바지": 7569,
    "▁제품이에요": 7570,
    "▁고민이": 7571,
    "▁버린": 7572,
    "▁일상생활": 7573,
    "▁파도": 7574,
    "▁추가할": 7575,
    "건을": 7576,
    "▁통장": 7577,
    "▁거리에서": 7578,
    "▁이탈리아에": 7579,
    "▁강요": 7580,
    "▁수용": 7581,
    "십시오": 7582,
    "였으면": 7583,
    "▁상관이": 7584,
    "▁장면이": 7585,
    "▁본격적": 7586,
    "중입니다": 7587,
    "성과": 7588,
    "불을": 7589,
    "업": 7590,
    "▁대리점": 7591,
    "▁들어오면": 7592,
    "▁노력하면": 7593,
    "▁내에": 7594,
    "돌": 7595,
    "▁문명": 7596,
    "▁가능해": 7597,
    "▁작품에": 7598,
    "▁위로해": 7599,
    "▁프리랜서": 7600,
    "▁공부한": 7601,
    "▁콜": 7602,
    "▁주문하면": 7603,
    "▁그러면서": 7604,
    "▁팬이": 7605,
    "▁추세": 7606,
    "▁시일": 7607,
    "▁출항": 7608,
    "▁지혜": 7609,
    "▁외국인과": 7610,
    "▁해수욕장에": 7611,
    "▁기업들": 7612,
    "▁소독": 7613,
    "▁보신": 7614,
    "▁졸": 7615,
    "▁개설": 7616,
    "▁사건에": 7617,
    "창": 7618,
    "▁있는것을": 7619,
    "▁다가가": 7620,
    "▁이미지로": 7621,
    "▁악": 7622,
    "▁비닐": 7623,
    "십시요": 7624,
    "▁기다렸어": 7625,
    "▁없네": 7626,
    "▁버렸어": 7627,
    "▁초등학생": 7628,
    "▁뷔페": 7629,
    "▁동반": 7630,
    "▁괜": 7631,
    "▁댁에": 7632,
    "▁렌터카": 7633,
    "▁샀는데": 7634,
    "▁있겠니": 7635,
    "▁한마디": 7636,
    "▁거듭": 7637,
    "▁홈스테이": 7638,
    "▁용접": 7639,
    "▁얼룩": 7640,
    "▁집주인": 7641,
    "▁만났으면": 7642,
    "▁부탁드리며": 7643,
    "▁원하시나요": 7644,
    "▁개인정보": 7645,
    "▁워터": 7646,
    "▁올게요": 7647,
    "▁존경합니다": 7648,
    "▁갔으면": 7649,
    "▁발목": 7650,
    "▁높다": 7651,
    "▁튼튼한": 7652,
    "▁다니며": 7653,
    "▁버그": 7654,
    "▁바이오": 7655,
    "▁기다렸어요": 7656,
    "B": 7657,
    "▁클리어": 7658,
    "▁얻었습니다": 7659,
    "▁마셔요": 7660,
    "▁선택했습니다": 7661,
    "▁팝": 7662,
    "▁일일": 7663,
    "▁발생했습니다": 7664,
    "▁답안": 7665,
    "▁동일합니다": 7666,
    "▁레드": 7667,
    "▁섬유": 7668,
    "▁치러": 7669,
    "▁발음이": 7670,
    "▁뷰티": 7671,
    "▁한마리": 7672,
    "▁갈래": 7673,
    "▁방송국": 7674,
    "▁연말": 7675,
    "돼요": 7676,
    "▁하거든요": 7677,
    "▁중량": 7678,
    "▁선배": 7679,
    "▁i": 7680,
    "▁하트": 7681,
    "▁밀려": 7682,
    "▁너네": 7683,
    "▁인형이": 7684,
    "▁하루종일": 7685,
    "▁맞추어": 7686,
    "▁뜻입니다": 7687,
    "차피": 7688,
    "▁필요성": 7689,
    "▁눈물이": 7690,
    "▁느껴지는": 7691,
    "▁고려해야": 7692,
    "▁유사한": 7693,
    "▁만두": 7694,
    "▁재밌어": 7695,
    "▁기억할": 7696,
    "▁첫날": 7697,
    "▁주변에서": 7698,
    "▁소득": 7699,
    "▁일했습니다": 7700,
    "▁했지": 7701,
    "▁분량": 7702,
    "▁아이템입니다": 7703,
    "▁버리지": 7704,
    "▁지면": 7705,
    "▁세심": 7706,
    "▁갈까": 7707,
    "▁다치지": 7708,
    "▁지난달에": 7709,
    "▁시작해야": 7710,
    "할까요": 7711,
    "봉": 7712,
    "이지": 7713,
    "▁해물": 7714,
    "▁가족들에게": 7715,
    "▁카메라로": 7716,
    "▁보는것": 7717,
    "▁전역": 7718,
    "▁주인이": 7719,
    "▁구해": 7720,
    "▁해양": 7721,
    "애": 7722,
    "▁제공되": 7723,
    "▁게시": 7724,
    "▁하는데요": 7725,
    "▁영상이": 7726,
    "▁작고": 7727,
    "▁다녔": 7728,
    "▁소식이": 7729,
    "▁인터넷이": 7730,
    "▁회신해": 7731,
    "▁건네": 7732,
    "▁하시길": 7733,
    "▁시기에": 7734,
    "갑니다": 7735,
    "▁먹었": 7736,
    "▁집착": 7737,
    "듯한": 7738,
    "▁단점이": 7739,
    "▁시간에는": 7740,
    "▁잘합니다": 7741,
    "▁화면에서": 7742,
    "▁사진이에요": 7743,
    "▁할인해": 7744,
    "상으로": 7745,
    "▁과도": 7746,
    "개입니다": 7747,
    "▁사람에": 7748,
    "▁때문": 7749,
    "▁아이템이": 7750,
    "▁순간에": 7751,
    "▁확인서": 7752,
    "▁서비스에": 7753,
    "▁벌어": 7754,
    "▁먹는다": 7755,
    "▁맵": 7756,
    "▁시간표": 7757,
    "▁벚꽃": 7758,
    "▁알리는": 7759,
    "잖아요": 7760,
    "▁점심시간": 7761,
    "대의": 7762,
    "▁보내서": 7763,
    "▁거면": 7764,
    "었다고": 7765,
    "하시길": 7766,
    "▁상태에": 7767,
    "▁결제할": 7768,
    "▁사물": 7769,
    "▁흐르는": 7770,
    "▁강사": 7771,
    "▁소고기": 7772,
    "▁일방적": 7773,
    "▁담당자와": 7774,
    "기만": 7775,
    "▁단단": 7776,
    "▁선물해": 7777,
    "하죠": 7778,
    "▁걸리": 7779,
    "▁수표": 7780,
    "▁군대에": 7781,
    "▁꿈꾸는": 7782,
    "6": 7783,
    "▁엘": 7784,
    "▁플리토": 7785,
    "리가": 7786,
    "▁어린이들": 7787,
    "▁남의": 7788,
    "▁항": 7789,
    "▁포함해": 7790,
    "▁살펴": 7791,
    "▁빗": 7792,
    "▁반응이": 7793,
    "경": 7794,
    "▁여지": 7795,
    "▁복잡": 7796,
    "▁주사": 7797,
    "▁친구라고": 7798,
    "▁전화할": 7799,
    "▁내부적": 7800,
    "▁알파벳": 7801,
    "관리": 7802,
    "▁이끌": 7803,
    "▁종업원": 7804,
    "▁믿": 7805,
    "▁포장지": 7806,
    "▁공유하고": 7807,
    "▁주부터": 7808,
    "▁받아들여": 7809,
    "▁벽에": 7810,
    "▁체결": 7811,
    "▁끝낼": 7812,
    "▁수량에": 7813,
    "▁인연이": 7814,
    "▁어머니가": 7815,
    "였지만": 7816,
    "▁안나": 7817,
    "▁데에": 7818,
    "▁덮": 7819,
    "▁깊어": 7820,
    "▁유익": 7821,
    "돼서": 7822,
    "▁야경": 7823,
    "▁사용해서": 7824,
    "▁사용될": 7825,
    "▁늘리": 7826,
    "▁당시에": 7827,
    "드는": 7828,
    "▁롤모델": 7829,
    "▁좋아하는지": 7830,
    "▁던": 7831,
    "▁마인드": 7832,
    "▁배로": 7833,
    "▁내용과": 7834,
    "베": 7835,
    "러운": 7836,
    "▁사지": 7837,
    "▁연락하고": 7838,
    "▁유지하는": 7839,
    "▁계열": 7840,
    "▁영화도": 7841,
    "▁불평": 7842,
    "▁있겠지": 7843,
    "▁정하고": 7844,
    "▁지퍼": 7845,
    "▁느꼈어": 7846,
    "▁죄송한데": 7847,
    "▁해본": 7848,
    "▁입구": 7849,
    "▁어떨": 7850,
    "▁센": 7851,
    "▁부득이": 7852,
    "▁알루미늄": 7853,
    "▁알맞은": 7854,
    "▁프리미엄": 7855,
    "▁바비큐": 7856,
    "▁나타냅니다": 7857,
    "▁모니터링": 7858,
    "▁lg": 7859,
    "▁마쳤습니다": 7860,
    "▁키보드": 7861,
    "▁면허증": 7862,
    "▁지폐": 7863,
    "▁학위": 7864,
    "▁놀랐어요": 7865,
    "▁회색": 7866,
    "▁명백": 7867,
    "▁속옷": 7868,
    "▁글쎄요": 7869,
    "▁물어보세요": 7870,
    "▁유료": 7871,
    "▁분노": 7872,
    "▁알레르기": 7873,
    "▁말해서": 7874,
    "▁장래": 7875,
    "▁개방": 7876,
    "▁고무": 7877,
    "▁없이는": 7878,
    "▁30%": 7879,
    "▁키워드": 7880,
    "▁반찬": 7881,
    "▁선택하세요": 7882,
    "▁우측": 7883,
    "▁생물": 7884,
    "▁고구마": 7885,
    "▁예상되": 7886,
    "▁준비하겠습니다": 7887,
    "▁지배": 7888,
    "▁셀": 7889,
    "▁철수": 7890,
    "▁밝혀": 7891,
    "▁한눈": 7892,
    "▁워드": 7893,
    "▁우편물": 7894,
    "▁데스크": 7895,
    "▁소름": 7896,
    "▁조심해야": 7897,
    "▁귀찮게": 7898,
    "▁그래픽": 7899,
    "▁않을까요": 7900,
    "▁신발이": 7901,
    "▁플레이어": 7902,
    "▁경주": 7903,
    "▁모던": 7904,
    "▁종류는": 7905,
    "▁서버에": 7906,
    "▁사용하던": 7907,
    "▁잘못한": 7908,
    "▁버터": 7909,
    "▁제시간에": 7910,
    "▁업데이트해": 7911,
    "▁드려서": 7912,
    "▁장시간": 7913,
    "▁미안하게": 7914,
    "▁버렸습니다": 7915,
    "▁최종적으로": 7916,
    "▁놓았습니다": 7917,
    "▁오길": 7918,
    "▁잔디": 7919,
    "▁더위": 7920,
    "▁포장해": 7921,
    "▁바뀌지": 7922,
    "▁힘들지만": 7923,
    "▁늘려": 7924,
    "▁해결해야": 7925,
    "▁졌어": 7926,
    "▁사람한테": 7927,
    "▁좋아한다고": 7928,
    "▁케어": 7929,
    "▁벌금": 7930,
    "▁선택하는": 7931,
    "▁공간입니다": 7932,
    "▁구경할": 7933,
    "▁문화와": 7934,
    "량이": 7935,
    "▁버전이": 7936,
    "▁사람들에": 7937,
    "▁각질": 7938,
    "▁들어오지": 7939,
    "책을": 7940,
    "▁상점에서": 7941,
    "▁것이었어요": 7942,
    "▁두달": 7943,
    "▁사귄": 7944,
    "▁신부": 7945,
    "▁조기": 7946,
    "▁방학이": 7947,
    "▁판매량": 7948,
    "탈": 7949,
    "라인": 7950,
    "▁성실": 7951,
    "▁산이": 7952,
    "▁멈추지": 7953,
    "▁무례": 7954,
    "▁전문성": 7955,
    "▁영광": 7956,
    "▁다르기": 7957,
    "▁끌어": 7958,
    "▁동의하지": 7959,
    "▁사랑받": 7960,
    "▁어울리지": 7961,
    "▁강력": 7962,
    "▁보내려고": 7963,
    "▁내려서": 7964,
    "위로": 7965,
    "▁갚": 7966,
    "▁은행으로": 7967,
    "▁아침까지": 7968,
    "▁실내에서": 7969,
    "▁저렴하": 7970,
    "능력": 7971,
    "▁프리": 7972,
    "▁베트남에서": 7973,
    "▁계산서": 7974,
    "▁나타내는": 7975,
    "▁잘해야": 7976,
    "▁불꽃": 7977,
    "▁지원하": 7978,
    "▁응원해": 7979,
    "하니까": 7980,
    "금이": 7981,
    "▁환율": 7982,
    "▁페이지에": 7983,
    "▁센터에": 7984,
    "▁음식과": 7985,
    "▁농담": 7986,
    "자와": 7987,
    "▁고객들과": 7988,
    "▁테니스를": 7989,
    "▁알았다": 7990,
    "▁악기": 7991,
    "▁아니라는": 7992,
    "▁싫은": 7993,
    "▁일합니다": 7994,
    "▁연인이": 7995,
    "톤": 7996,
    "▁어렸을때": 7997,
    "▁얘기할": 7998,
    "▁시계는": 7999,
    "▁노력한": 8000,
    "심": 8001,
    "▁견": 8002,
    "락": 8003,
    "돼": 8004,
    "▁설날": 8005,
    "수를": 8006,
    "▁터": 8007,
    "▁주민들": 8008,
    "▁당신들과": 8009,
    "해주면": 8010,
    "료": 8011,
    "▁배우면": 8012,
    "▁일곱": 8013,
    "▁하셔": 8014,
    "▁건물에": 8015,
    "▁족": 8016,
    "▁멋": 8017,
    "▁오른쪽에": 8018,
    "▁영국에서": 8019,
    "▁패킹": 8020,
    "▁호스": 8021,
    "▁가르치는": 8022,
    "▁비어": 8023,
    "▁몇시간": 8024,
    "▁친절함": 8025,
    "사는": 8026,
    "벌": 8027,
    "▁수면": 8028,
    "▁회수": 8029,
    "▁방학에": 8030,
    "▁이태원에": 8031,
    "▁침대에": 8032,
    "▁내일도": 8033,
    "▁엔진": 8034,
    "시켜": 8035,
    "▁닦아": 8036,
    "km": 8037,
    "물을": 8038,
    "표": 8039,
    "▁줘도": 8040,
    "▁확산": 8041,
    "▁신중하": 8042,
    "▁미루": 8043,
    "▁쌓아": 8044,
    "▁누구든": 8045,
    "▁고리": 8046,
    "▁용서해": 8047,
    "▁이루는": 8048,
    "▁풍부하": 8049,
    "▁슈": 8050,
    "▁음악에": 8051,
    "▁함유되어": 8052,
    "▁멈출": 8053,
    "▁O": 8054,
    "▁벌레": 8055,
    "▁보스": 8056,
    "▁로비": 8057,
    "▁입맛": 8058,
    "▁받는다": 8059,
    "▁싸우": 8060,
    "▁대단하다": 8061,
    "▁슬프게": 8062,
    "▁한참": 8063,
    "▁친해": 8064,
    "▁불량이": 8065,
    "▁유도": 8066,
    "▁사진에서": 8067,
    "▁가격표": 8068,
    "▁주까지": 8069,
    "▁초래": 8070,
    "▁설문조사": 8071,
    "▁잤": 8072,
    "▁삼아": 8073,
    "▁용이": 8074,
    "▁기독교": 8075,
    "잖아": 8076,
    "▁포스팅": 8077,
    "▁보시는": 8078,
    "▁칵테일": 8079,
    "▁실례합니다": 8080,
    "▁과정에": 8081,
    "▁통계": 8082,
    "▁롯데": 8083,
    "▁그랬어": 8084,
    "▁기재해": 8085,
    "▁서포": 8086,
    "▁잃어버린": 8087,
    "▁즐기기": 8088,
    "▁웬만": 8089,
    "▁같기": 8090,
    "▁방콕": 8091,
    "▁불필요": 8092,
    "▁비트코인": 8093,
    "▁스쿼트": 8094,
    "▁오리지널": 8095,
    "▁장래희망": 8096,
    "▁찾습니다": 8097,
    "▁찾은": 8098,
    "▁휴학": 8099,
    "▁아껴": 8100,
    "▁웨이터": 8101,
    "빛": 8102,
    "▁황금": 8103,
    "▁데이비드": 8104,
    "▁동굴": 8105,
    "▁깊었던": 8106,
    "▁힐링": 8107,
    "▁가르침": 8108,
    "▁나오나요": 8109,
    "▁다행입니다": 8110,
    "▁즐거웠습니다": 8111,
    "▁봤으면": 8112,
    "▁걸릴까요": 8113,
    "▁입국": 8114,
    "▁것일까": 8115,
    "▁베토벤": 8116,
    "▁캡쳐": 8117,
    "▁핫": 8118,
    "▁민주주의": 8119,
    "▁서포트": 8120,
    "▁갔는데": 8121,
    "▁특성상": 8122,
    "▁책임지": 8123,
    "▁누락된": 8124,
    "▁받아들일": 8125,
    "▁격식": 8126,
    "▁제공됩니다": 8127,
    "▁연락드릴게요": 8128,
    "▁외교": 8129,
    "▁볶음밥": 8130,
    "▁보내요": 8131,
    "▁다문화": 8132,
    "▁먹거리": 8133,
    "▁5000": 8134,
    "▁상위": 8135,
    "▁육수": 8136,
    "▁말인가요": 8137,
    "▁듯해요": 8138,
    "▁업적": 8139,
    "▁끼워": 8140,
    "▁겟": 8141,
    "▁폼": 8142,
    "▁나갑니다": 8143,
    "▁완료되면": 8144,
    "▁해킹": 8145,
    "▁그리워요": 8146,
    "▁자르": 8147,
    "▁이럴": 8148,
    "▁보이스": 8149,
    "▁관리할": 8150,
    "▁손상된": 8151,
    "▁롤러": 8152,
    "▁가지세요": 8153,
    "년도에": 8154,
    "▁모음": 8155,
    "▁하든": 8156,
    "▁시일내": 8157,
    "▁오실": 8158,
    "▁창구": 8159,
    "▁지구에": 8160,
    "▁장어": 8161,
    "▁적용하여": 8162,
    "▁제작하는": 8163,
    "▁샤워하고": 8164,
    "▁느리": 8165,
    "▁보건": 8166,
    "▁정확": 8167,
    "▁뭐니": 8168,
    "▁애니": 8169,
    "▁경쟁사": 8170,
    "▁나름": 8171,
    "▁못한다면": 8172,
    "▁해결하는": 8173,
    "이었지만": 8174,
    "▁했었어": 8175,
    "할까": 8176,
    "▁하나에요": 8177,
    "▁필기": 8178,
    "▁유용": 8179,
    "▁나이에": 8180,
    "▁코인": 8181,
    "▁오는데": 8182,
    "▁본사에서": 8183,
    "▁참치": 8184,
    "▁샵": 8185,
    "▁재료들": 8186,
    "▁읽지": 8187,
    "북": 8188,
    "▁잃을": 8189,
    "▁궁금해서": 8190,
    "▁조깅": 8191,
    "▁cd": 8192,
    "▁적용할": 8193,
    "▁순환": 8194,
    "기와": 8195,
    "▁유산": 8196,
    "▁머무는": 8197,
    "▁롭": 8198,
    "▁구별": 8199,
    "▁사용했어요": 8200,
    "원에서": 8201,
    "▁일이라": 8202,
    "▁문화재": 8203,
    "▁커피가": 8204,
    "▁인천에": 8205,
    "▁함께한": 8206,
    "▁결정할": 8207,
    "▁성장할": 8208,
    "▁관리에": 8209,
    "▁들었을": 8210,
    "▁36": 8211,
    "▁흑인": 8212,
    "▁흔": 8213,
    "▁셔서": 8214,
    "▁제공하기": 8215,
    "▁높고": 8216,
    "▁게임에": 8217,
    "▁수당": 8218,
    "▁근본적": 8219,
    "▁않아야": 8220,
    "▁칼라": 8221,
    "▁하셔서": 8222,
    "▁느": 8223,
    "▁사랑의": 8224,
    "▁폐": 8225,
    "▁책임감이": 8226,
    "번호를": 8227,
    "▁액": 8228,
    "▁움직이": 8229,
    "▁물가": 8230,
    "였는데": 8231,
    "▁태국에서": 8232,
    "▁지역이": 8233,
    "무": 8234,
    "▁포도": 8235,
    "링": 8236,
    "▁다닌": 8237,
    "▁상에": 8238,
    "▁교과서": 8239,
    "▁교회에서": 8240,
    "▁떠나기": 8241,
    "▁대기업": 8242,
    "▁직장에": 8243,
    "▁미술관": 8244,
    "로울": 8245,
    "▁자랑": 8246,
    "▁현장에": 8247,
    "▁우리나라에": 8248,
    "▁서울역": 8249,
    "▁알면": 8250,
    "▁떠오르": 8251,
    "▁운전하는": 8252,
    "▁인사동": 8253,
    "▁하단": 8254,
    "▁마찬가지": 8255,
    "▁아빠와": 8256,
    "▁소지": 8257,
    "이다": 8258,
    "교육": 8259,
    "▁구독": 8260,
    "▁속도로": 8261,
    "▁오토바이": 8262,
    "▁이상형": 8263,
    "▁함께하고": 8264,
    "▁상업적": 8265,
    "▁사유": 8266,
    "▁어디든": 8267,
    "이었어": 8268,
    "▁간섭": 8269,
    "▁사람이라": 8270,
    "▁적용이": 8271,
    "▁색으로": 8272,
    "▁이루어지": 8273,
    "▁대사관": 8274,
    "▁이어지는": 8275,
    "▁제사": 8276,
    "▁바닷가에": 8277,
    "▁업계": 8278,
    "▁타자": 8279,
    "하다가": 8280,
    "▁때문인": 8281,
    "▁공부해": 8282,
    "▁트럼프": 8283,
    "▁생각만": 8284,
    "▁결정에": 8285,
    "▁이용하기": 8286,
    "되었다고": 8287,
    "▁갖는": 8288,
    "▁운동하는": 8289,
    "증이": 8290,
    "▁발휘": 8291,
    "▁치과에": 8292,
    "▁도전해": 8293,
    "▁직원들이": 8294,
    "▁따뜻": 8295,
    "▁일한": 8296,
    "것만": 8297,
    "▁타기": 8298,
    "▁어우러": 8299,
    "▁거울": 8300,
    "▁드려": 8301,
    "▁프로세스": 8302,
    "다운": 8303,
    "▁휴무": 8304,
    "▁다음번": 8305,
    "▁썰어": 8306,
    "▁직장인": 8307,
    "▁어제보다": 8308,
    "▁파이": 8309,
    "▁초청": 8310,
    "▁생긴다": 8311,
    "▁범인": 8312,
    "▁인근": 8313,
    "▁연결되어": 8314,
    "▁전문점": 8315,
    "▁믿음이": 8316,
    "▁최적": 8317,
    "▁거주하": 8318,
    "▁참여하": 8319,
    "▁보내드리": 8320,
    "▁간에": 8321,
    "▁떨어지는": 8322,
    "분간": 8323,
    "▁계시": 8324,
    "▁가동": 8325,
    "▁문제도": 8326,
    "▁성실하": 8327,
    "▁당근": 8328,
    "▁교재": 8329,
    "해주는": 8330,
    "▁거실": 8331,
    "▁마셨어": 8332,
    "▁최우선": 8333,
    "▁배웠어": 8334,
    "▁아닐까": 8335,
    "▁풍성": 8336,
    "▁원할": 8337,
    "▁나왔어": 8338,
    "▁가깝": 8339,
    "▁출국": 8340,
    "▁일회용": 8341,
    "▁돈가스": 8342,
    "▁그러는데": 8343,
    "▁페인트": 8344,
    "▁해주": 8345,
    "▁많으니": 8346,
    "▁같군요": 8347,
    "▁고맙게": 8348,
    "▁날카로운": 8349,
    "▁낫다": 8350,
    "▁났다": 8351,
    "▁넥타이": 8352,
    "▁노폐물": 8353,
    "▁눈썹": 8354,
    "▁돕고": 8355,
    "▁섞여": 8356,
    "▁옳지": 8357,
    "▁이모티콘": 8358,
    "▁괜찮으시다면": 8359,
    "▁두려움": 8360,
    "▁스팸": 8361,
    "▁기쁜": 8362,
    "▁가급적": 8363,
    "▁드라이버": 8364,
    "▁호랑이": 8365,
    "▁스킨케어": 8366,
    "▁엉덩이": 8367,
    "▁씨앗": 8368,
    "▁있답니다": 8369,
    "▁대규모": 8370,
    "▁체류": 8371,
    "▁시달리": 8372,
    "▁파이프": 8373,
    "▁만납니다": 8374,
    "▁감사드려요": 8375,
    "▁늦었습니다": 8376,
    "▁모발": 8377,
    "▁아무튼": 8378,
    "▁지났습니다": 8379,
    "▁조심스럽게": 8380,
    "▁말하자면": 8381,
    "▁강림": 8382,
    "▁갑작스": 8383,
    "▁궁금하신": 8384,
    "▁라이브": 8385,
    "▁오디오": 8386,
    "▁연주를": 8387,
    "▁미칠": 8388,
    "▁출전": 8389,
    "▁없으며": 8390,
    "▁도망": 8391,
    "▁불법": 8392,
    "▁편리합니다": 8393,
    "▁내렸어요": 8394,
    "▁드리려": 8395,
    "▁금형": 8396,
    "▁크루즈": 8397,
    "▁디스크": 8398,
    "▁갱신": 8399,
    "▁바빠요": 8400,
    "▁마우스": 8401,
    "▁하노이": 8402,
    "▁아쉬워요": 8403,
    "▁구운": 8404,
    "▁냈어요": 8405,
    "▁10,000": 8406,
    "▁아니었어요": 8407,
    "▁초기화": 8408,
    "▁어려": 8409,
    "▁트랙": 8410,
    "▁새끼": 8411,
    "▁90": 8412,
    "▁본래": 8413,
    "▁자본": 8414,
    "▁닫아": 8415,
    "▁말하세요": 8416,
    "출": 8417,
    "▁마칠": 8418,
    "▁입습니다": 8419,
    "▁울산": 8420,
    "▁정체성": 8421,
    "▁맞는다면": 8422,
    "▁받았고": 8423,
    "▁바디": 8424,
    "▁메리": 8425,
    "▁월드": 8426,
    "▁어디인지": 8427,
    "▁지날": 8428,
    "▁티브이": 8429,
    "▁제안합니다": 8430,
    "▁바꾸지": 8431,
    "▁쓰레기통": 8432,
    "▁느낌이에요": 8433,
    "▁노화": 8434,
    "▁확인하지": 8435,
    "▁나오기": 8436,
    "▁열정적인": 8437,
    "▁같지만": 8438,
    "▁표합니다": 8439,
    "▁예뻐서": 8440,
    "▁보이게": 8441,
    "시킨": 8442,
    "▁수업시간에": 8443,
    "▁가실": 8444,
    "▁가면서": 8445,
    "▁않나": 8446,
    "▁생일에": 8447,
    "▁졸업식": 8448,
    "▁페이": 8449,
    "▁다음달에": 8450,
    "▁사용됩니다": 8451,
    "▁파악할": 8452,
    "▁맞이": 8453,
    "▁칭": 8454,
    "▁참고할": 8455,
    "▁지불하지": 8456,
    "▁J": 8457,
    "▁철자": 8458,
    "▁되었던": 8459,
    "았습니다": 8460,
    "▁바입니다": 8461,
    "▁예정이라": 8462,
    "▁신사": 8463,
    "▁다가오": 8464,
    "▁제품만": 8465,
    "▁혈": 8466,
    "▁넣어야": 8467,
    "▁기후": 8468,
    "▁가루": 8469,
    "▁극장에서": 8470,
    "l": 8471,
    "▁놓여": 8472,
    "▁직전": 8473,
    "▁점이에요": 8474,
    "▁등록증": 8475,
    "▁먹게": 8476,
    "▁리스트에": 8477,
    "▁메모리": 8478,
    "▁맛있": 8479,
    "▁법은": 8480,
    "▁넘어서": 8481,
    "▁펼쳐": 8482,
    "씨는": 8483,
    "▁느껴져": 8484,
    "▁계약금": 8485,
    "▁집중할": 8486,
    "▁도착하여": 8487,
    "줬어요": 8488,
    "인이": 8489,
    "▁일어나야": 8490,
    "받은": 8491,
    "▁발송해": 8492,
    "▁사용법": 8493,
    "▁극장에": 8494,
    "▁IP": 8495,
    "▁이용하지": 8496,
    "▁호주에서": 8497,
    "▁독점": 8498,
    "▁감지": 8499,
    "▁불어": 8500,
    "▁미국이": 8501,
    "▁일본이": 8502,
    "▁매운맛": 8503,
    "▁개선할": 8504,
    "▁가슴이": 8505,
    "해질": 8506,
    "▁타워": 8507,
    "▁주고받": 8508,
    "▁쓰이는": 8509,
    "▁논": 8510,
    "▁내린": 8511,
    "▁싱가포르에": 8512,
    "언": 8513,
    "▁마음속": 8514,
    "▁웹사이트에서": 8515,
    "▁해볼": 8516,
    "▁제품들이": 8517,
    "▁네게": 8518,
    "▁준비된": 8519,
    "▁기때문에": 8520,
    "▁주목": 8521,
    "민": 8522,
    "▁모으는": 8523,
    "리를": 8524,
    "▁자동화": 8525,
    "▁성적서": 8526,
    "▁효과적": 8527,
    "호에": 8528,
    "▁성숙": 8529,
    "▁고향에": 8530,
    "▁스튜디오": 8531,
    "▁항의": 8532,
    "▁나누는": 8533,
    "▁미나": 8534,
    "▁과정이": 8535,
    "▁나아": 8536,
    "▁씻어": 8537,
    "카드": 8538,
    "▁법이": 8539,
    "▁학기에": 8540,
    "▁따라야": 8541,
    "▁타일": 8542,
    "▁작성한": 8543,
    "▁디바이스": 8544,
    "▁W": 8545,
    "▁돌면": 8546,
    "식을": 8547,
    "▁학회": 8548,
    "▁경험한": 8549,
    "▁커지": 8550,
    "▁사항들": 8551,
    "▁기사와": 8552,
    "▁넣는": 8553,
    "장에": 8554,
    "▁떠오르는": 8555,
    "▁일인": 8556,
    "▁입시": 8557,
    "말": 8558,
    "▁모은": 8559,
    "▁겪어": 8560,
    "▁사랑으로": 8561,
    "▁높아지": 8562,
    "▁머릿속에": 8563,
    "▁자동차가": 8564,
    "▁꽃들": 8565,
    "▁시드니": 8566,
    "▁간호": 8567,
    "▁것인데": 8568,
    "▁싸우지": 8569,
    "▁땅에": 8570,
    "령": 8571,
    "▁생각해서": 8572,
    "▁진행된": 8573,
    "▁항공기": 8574,
    "말로": 8575,
    "9": 8576,
    "태": 8577,
    "▁마녀": 8578,
    "▁없어지": 8579,
    "▁꿀": 8580,
    "거든요": 8581,
    "▁모레": 8582,
    "냥": 8583,
    "지라도": 8584,
    "▁물건에": 8585,
    "▁것만": 8586,
    "▁인종차별": 8587,
    "▁수업에서": 8588,
    "▁취하": 8589,
    "▁여성이": 8590,
    "▁요일": 8591,
    "분만": 8592,
    "▁남긴": 8593,
    "▁전문적": 8594,
    "▁결혼에": 8595,
    "남": 8596,
    "▁저항": 8597,
    "▁류": 8598,
    "▁가까이에": 8599,
    "▁체육관": 8600,
    "▁대안": 8601,
    "나라": 8602,
    "▁현실에": 8603,
    "▁작곡": 8604,
    "킬로미터": 8605,
    "▁몰라도": 8606,
    "하겠다": 8607,
    "▁중점": 8608,
    "▁대리": 8609,
    "▁입금해": 8610,
    "▁뛰": 8611,
    "▁명단": 8612,
    "시고": 8613,
    "▁번만": 8614,
    "▁나가기": 8615,
    "▁잘해요": 8616,
    "▁불행": 8617,
    "▁친척들이": 8618,
    "▁나타나는": 8619,
    "▁붙이": 8620,
    "▁대접": 8621,
    "▁과목이": 8622,
    "▁티켓이": 8623,
    "▁입에": 8624,
    "▁내일이": 8625,
    "▁해외에": 8626,
    "▁제인": 8627,
    "▁배우자": 8628,
    "▁선호": 8629,
    "단계": 8630,
    "▁나뉘어": 8631,
    "▁패": 8632,
    "주간": 8633,
    "▁탐": 8634,
    "▁표지": 8635,
    "▁분기": 8636,
    "▁신혼여행": 8637,
    "▁이성": 8638,
    "▁여기저기": 8639,
    "▁심각": 8640,
    "▁염": 8641,
    "▁충실": 8642,
    "▁열기": 8643,
    "▁공증": 8644,
    "▁결정하는": 8645,
    "마리": 8646,
    "▁물량": 8647,
    "▁가수는": 8648,
    "▁편의점": 8649,
    "▁때만": 8650,
    "▁쏘": 8651,
    "▁굉장": 8652,
    "▁원피스": 8653,
    "▁악화": 8654,
    "▁의문": 8655,
    "▁끓인": 8656,
    "▁전하고": 8657,
    "▁힘들었어": 8658,
    "막": 8659,
    "▁갖춰": 8660,
    "▁겉모습": 8661,
    "▁늦지": 8662,
    "▁밤늦게": 8663,
    "▁셰익스피어": 8664,
    "▁아닙니까": 8665,
    "▁여름휴가": 8666,
    "▁지구온난화": 8667,
    "▁시너지": 8668,
    "▁낙태": 8669,
    "▁고마운": 8670,
    "▁안녕하십니까": 8671,
    "▁유니크": 8672,
    "▁즐겁습니다": 8673,
    "▁자외선": 8674,
    "▁치워": 8675,
    "▁바릅니다": 8676,
    "▁최저": 8677,
    "▁이루어집니다": 8678,
    "▁물결": 8679,
    "▁명예": 8680,
    "▁돌아갑니다": 8681,
    "▁스케치": 8682,
    "▁있겠네요": 8683,
    "▁아님": 8684,
    "▁가져올": 8685,
    "▁받았는데": 8686,
    "▁위함입니다": 8687,
    "▁근대": 8688,
    "▁찾았습니다": 8689,
    "▁국가에": 8690,
    "▁마십니다": 8691,
    "▁죽는": 8692,
    "▁드실": 8693,
    "▁스티브": 8694,
    "▁수하물": 8695,
    "▁잭슨": 8696,
    "▁있었나요": 8697,
    "▁이어질": 8698,
    "▁있거든요": 8699,
    "▁계신가요": 8700,
    "▁다니면": 8701,
    "▁같았어요": 8702,
    "▁책임질": 8703,
    "▁않을래요": 8704,
    "▁신경쓰지": 8705,
    "▁장기적으로": 8706,
    "▁재생": 8707,
    "▁왔으니": 8708,
    "▁불가능해요": 8709,
    "▁변경되었습니다": 8710,
    "▁럭비": 8711,
    "▁피터": 8712,
    "▁없니": 8713,
    "▁운송료": 8714,
    "▁필요한가요": 8715,
    "▁높아요": 8716,
    "▁들어주셔서": 8717,
    "▁보네요": 8718,
    "▁원형": 8719,
    "▁촉촉한": 8720,
    "▁정해져": 8721,
    "▁긍정": 8722,
    "▁결재": 8723,
    "▁구간": 8724,
    "▁더워서": 8725,
    "▁마른": 8726,
    "▁괜찮다고": 8727,
    "▁나쁘지": 8728,
    "▁화해": 8729,
    "▁엿": 8730,
    "▁완성된": 8731,
    "▁벗어": 8732,
    "케": 8733,
    "▁기재된": 8734,
    "▁단풍": 8735,
    "주가": 8736,
    "▁기원": 8737,
    "▁바다가": 8738,
    "▁발생했어요": 8739,
    "▁바다로": 8740,
    "▁필요한데": 8741,
    "▁동성": 8742,
    "▁내립니다": 8743,
    "▁소통하는": 8744,
    "▁명확한": 8745,
    "▁지표": 8746,
    "▁물어보고": 8747,
    "▁할인이": 8748,
    "▁점심으로": 8749,
    "▁태우": 8750,
    "▁사업이": 8751,
    "▁됐": 8752,
    "20": 8753,
    "▁비슷": 8754,
    "▁지난해": 8755,
    "▁줄이는": 8756,
    "▁첫눈": 8757,
    "▁중이": 8758,
    "▁했네요": 8759,
    "▁당신하고": 8760,
    "▁여겨": 8761,
    "▁영어실력": 8762,
    "▁여행하는": 8763,
    "▁조식": 8764,
    "▁더해": 8765,
    "▁결과로": 8766,
    "▁룩": 8767,
    "▁함께할": 8768,
    "▁우리회사": 8769,
    "봐요": 8770,
    "▁명확하": 8771,
    "▁칩니다": 8772,
    "▁찍어도": 8773,
    "▁휴대폰이": 8774,
    "▁품목에": 8775,
    "하네요": 8776,
    "▁날씨에": 8777,
    "▁32": 8778,
    "▁대신해서": 8779,
    "▁칸": 8780,
    "▁본다": 8781,
    "▁공인": 8782,
    "▁베네치아": 8783,
    "▁걸까요": 8784,
    "▁내리면": 8785,
    "▁자녀들": 8786,
    "줬으": 8787,
    "▁스타일이": 8788,
    "▁색감": 8789,
    "▁각국": 8790,
    "놓은": 8791,
    "▁진리": 8792,
    "▁돌아와": 8793,
    "▁갖추": 8794,
    "▁깜빡": 8795,
    "▁컴퓨터에": 8796,
    "▁입장이": 8797,
    "▁연락하면": 8798,
    "▁아끼는": 8799,
    "▁공급할": 8800,
    "▁날개": 8801,
    "▁설명하는": 8802,
    "▁신용카드로": 8803,
    "▁대통령이": 8804,
    "▁마트에": 8805,
    "▁면이": 8806,
    "▁만든다": 8807,
    "▁인문학": 8808,
    "▁졌으면": 8809,
    "▁소모": 8810,
    "▁걱정해": 8811,
    "▁학생들과": 8812,
    "▁생활비": 8813,
    "▁비비": 8814,
    "▁수입이": 8815,
    "▁믿는": 8816,
    "▁바꾸": 8817,
    "▁줄래요": 8818,
    "▁등록이": 8819,
    "강": 8820,
    "▁개발자": 8821,
    "▁R": 8822,
    "▁주시": 8823,
    "▁라운드": 8824,
    "▁부탁한": 8825,
    "때까지": 8826,
    "▁남기": 8827,
    "▁사람만": 8828,
    "▁부위에": 8829,
    "달러에": 8830,
    "브": 8831,
    "내에": 8832,
    "▁손님들이": 8833,
    "▁호기심": 8834,
    "▁효율": 8835,
    "▁스틱": 8836,
    "▁버전으로": 8837,
    "▁회로": 8838,
    "▁영향으로": 8839,
    "▁생산하는": 8840,
    "▁매출이": 8841,
    "▁지붕": 8842,
    "하십시오": 8843,
    "▁오르": 8844,
    "▁이리": 8845,
    "▁왕이": 8846,
    "▁종류에": 8847,
    "▁복도": 8848,
    "▁승진": 8849,
    "▁됐다": 8850,
    "▁대사": 8851,
    "▁작동이": 8852,
    "▁끝나지": 8853,
    "▁관리하는": 8854,
    "▁시력": 8855,
    "▁성장에": 8856,
    "▁싸우는": 8857,
    "▁하단에": 8858,
    "들입니다": 8859,
    "▁250": 8860,
    "▁책으로": 8861,
    "▁입금을": 8862,
    "▁000": 8863,
    "▁동네에": 8864,
    "머": 8865,
    "▁장사": 8866,
    "재": 8867,
    "▁시야": 8868,
    "▁형상": 8869,
    "▁테니스": 8870,
    "▁이윤": 8871,
    "▁좌측": 8872,
    "▁즈": 8873,
    "▁바뀌는": 8874,
    "▁일어": 8875,
    "▁나타난": 8876,
    "▁대만에": 8877,
    "▁편입": 8878,
    "▁관여": 8879,
    "▁이벤트에": 8880,
    "▁사망": 8881,
    "▁구성원들": 8882,
    "딩": 8883,
    "▁말레이시아": 8884,
    "▁작품이": 8885,
    "▁복습": 8886,
    "십니다": 8887,
    "▁뒤쪽": 8888,
    "▁박물관에": 8889,
    "분께": 8890,
    "▁누리": 8891,
    "▁생산할": 8892,
    "립니다": 8893,
    "교시": 8894,
    "▁현재는": 8895,
    "방": 8896,
    "▁공휴일": 8897,
    "▁그리기": 8898,
    "▁저자": 8899,
    "▁프랑스에서": 8900,
    "▁공부해야": 8901,
    "▁la": 8902,
    "▁하와이": 8903,
    "▁몰입": 8904,
    "▁뉴질랜드에": 8905,
    "▁목에": 8906,
    "사에서": 8907,
    "▁강원도": 8908,
    "▁가보": 8909,
    "▁식탁": 8910,
    "▁되돌아": 8911,
    "▁서양": 8912,
    "▁바꿔야": 8913,
    "▁들으": 8914,
    "스를": 8915,
    "▁스키장에": 8916,
    "▁방식에": 8917,
    "얼": 8918,
    "▁있음에": 8919,
    "▁감싸": 8920,
    "옷": 8921,
    "▁오프라인": 8922,
    "▁유아": 8923,
    "▁계정에": 8924,
    "▁몰랐": 8925,
    "▁납부": 8926,
    "▁소유자": 8927,
    "움": 8928,
    "일수록": 8929,
    "▁가던": 8930,
    "▁심리": 8931,
    "▁길에서": 8932,
    "▁관계자": 8933,
    "▁어디까지": 8934,
    "▁이점": 8935,
    "▁맛보": 8936,
    "▁커뮤니티": 8937,
    "▁도시로": 8938,
    "▁연도": 8939,
    "▁내려가": 8940,
    "▁빛나": 8941,
    "▁유효": 8942,
    "▁하셨": 8943,
    "▁시차": 8944,
    "▁먹이": 8945,
    "▁완벽": 8946,
    "▁생산성": 8947,
    "▁다음부터": 8948,
    "▁스파": 8949,
    "▁예금": 8950,
    "▁겨": 8951,
    "▁나타": 8952,
    "▁기대해": 8953,
    "▁것들에": 8954,
    "▁비용에": 8955,
    "소가": 8956,
    "▁전구": 8957,
    "▁타이밍": 8958,
    "▁요소들": 8959,
    "▁한번만": 8960,
    "▁중순": 8961,
    "▁노선": 8962,
    "자로": 8963,
    "▁고통이": 8964,
    "▁좋아한다": 8965,
    "리기": 8966,
    "▁의미하는": 8967,
    "만큼은": 8968,
    "▁경복궁": 8969,
    "▁기말고사": 8970,
    "▁옷들": 8971,
    "▁외로워": 8972,
    "▁오차": 8973,
    "▁임무": 8974,
    "▁퇴직": 8975,
    "▁읽었어": 8976,
    "▁즐거웠어": 8977,
    "▁정규": 8978,
    "▁행복했어": 8979,
    "▁램프": 8980,
    "▁웨딩": 8981,
    "▁멘토": 8982,
    "▁스페셜": 8983,
    "▁어학연수": 8984,
    "▁돕기": 8985,
    "▁들어갔을": 8986,
    "▁맺고": 8987,
    "▁묶어": 8988,
    "▁브런치": 8989,
    "▁시나리오": 8990,
    "▁씻고": 8991,
    "▁아픔": 8992,
    "▁이렇듯": 8993,
    "▁칼슘": 8994,
    "▁페덱스": 8995,
    "▁마카롱": 8996,
    "▁벙커": 8997,
    "▁보시다시피": 8998,
    "▁핫도그": 8999,
    "▁혼합": 9000,
    "▁기다립니다": 9001,
    "▁아메리카노": 9002,
    "▁건강검진": 9003,
    "▁모서리": 9004,
    "▁올바르": 9005,
    "▁아시겠지만": 9006,
    "▁아쉽지만": 9007,
    "▁춘천": 9008,
    "▁태어났습니다": 9009,
    "▁동봉": 9010,
    "▁잔잔한": 9011,
    "▁남았습니다": 9012,
    "▁빅데이터": 9013,
    "▁쌍둥이": 9014,
    "▁느껴보세요": 9015,
    "▁싶나요": 9016,
    "▁아침밥": 9017,
    "▁2,000": 9018,
    "▁이루어질": 9019,
    "▁아일랜드": 9020,
    "▁민족": 9021,
    "▁계급": 9022,
    "▁조건에": 9023,
    "▁지능": 9024,
    "▁볶아": 9025,
    "▁필요하니": 9026,
    "▁예정되어": 9027,
    "▁논란": 9028,
    "▁잘생긴": 9029,
    "▁고파서": 9030,
    "▁시험공부": 9031,
    "▁들어갑니다": 9032,
    "▁동등": 9033,
    "▁신비": 9034,
    "▁되겠어요": 9035,
    "▁석사": 9036,
    "▁퀄리티": 9037,
    "▁채권": 9038,
    "▁나갔어요": 9039,
    "▁장벽": 9040,
    "▁예약했는데": 9041,
    "▁혁명": 9042,
    "▁명품": 9043,
    "▁적힌": 9044,
    "▁겹쳐": 9045,
    "▁마시며": 9046,
    "▁오토": 9047,
    "▁그래프": 9048,
    "▁결정이": 9049,
    "▁좋아하세요": 9050,
    "▁과외": 9051,
    "▁5,000": 9052,
    "▁엽서": 9053,
    "▁희망해요": 9054,
    "▁남부": 9055,
    "▁축하합니다": 9056,
    "▁고칠": 9057,
    "▁하다니": 9058,
    "율": 9059,
    "▁400": 9060,
    "▁첨부했습니다": 9061,
    "▁날이었어요": 9062,
    "▁갈까요": 9063,
    "▁어디예요": 9064,
    "▁딴": 9065,
    "▁입어야": 9066,
    "▁기자": 9067,
    "▁매콤한": 9068,
    "▁가졌습니다": 9069,
    "▁부족해요": 9070,
    "▁묘사": 9071,
    "▁일전에": 9072,
    "▁녹차": 9073,
    "▁우물": 9074,
    "▁녹화": 9075,
    "▁좋아질": 9076,
    "▁프랑스어": 9077,
    "었는지": 9078,
    "▁단정": 9079,
    "▁서브": 9080,
    "▁도전하는": 9081,
    "▁이용합니다": 9082,
    "▁물건들이": 9083,
    "▁냈습니다": 9084,
    "▁추위": 9085,
    "▁받는것": 9086,
    "▁걸었습니다": 9087,
    "▁통하는": 9088,
    "▁다니지": 9089,
    "▁한다는것": 9090,
    "▁만나길": 9091,
    "▁착용감": 9092,
    "▁구입할": 9093,
    "▁키스": 9094,
    "▁공부했어요": 9095,
    "▁이루어지고": 9096,
    "▁미안하고": 9097,
    "▁조종사": 9098,
    "▁기억해요": 9099,
    "▁뛰어나": 9100,
    "▁반면": 9101,
    "▁끈기": 9102,
    "▁안정적": 9103,
    "▁구원": 9104,
    "▁최적화": 9105,
    "▁오디션": 9106,
    "▁교육에": 9107,
    "▁제작하여": 9108,
    "하시나요": 9109,
    "▁것이었습니다": 9110,
    "▁정하지": 9111,
    "▁근": 9112,
    "핀": 9113,
    "▁작품입니다": 9114,
    "▁세종대왕": 9115,
    "▁사실이에요": 9116,
    "▁수행하는": 9117,
    "▁기능성": 9118,
    "▁계속할": 9119,
    "▁직진": 9120,
    "▁군사": 9121,
    "▁귀에": 9122,
    "▁잡기": 9123,
    "▁걸음": 9124,
    "▁가는지": 9125,
    "▁명함": 9126,
    "▁일식": 9127,
    "▁중국이": 9128,
    "▁침대가": 9129,
    "▁이란": 9130,
    "▁백화점에서": 9131,
    "▁던지": 9132,
    "▁파트너와": 9133,
    "▁약점": 9134,
    "▁학생에게": 9135,
    "▁간다는": 9136,
    "자리": 9137,
    "▁연구입니다": 9138,
    "▁시인": 9139,
    "▁배우들": 9140,
    "▁부정적으로": 9141,
    "▁연구하고": 9142,
    "▁반환": 9143,
    "▁그램": 9144,
    "▁불러서": 9145,
    "▁보다가": 9146,
    "▁방문해서": 9147,
    "▁파리에": 9148,
    "▁강하고": 9149,
    "곳": 9150,
    "▁처방": 9151,
    "▁두어야": 9152,
    "항": 9153,
    "▁명성": 9154,
    "▁평일에": 9155,
    "▁눈과": 9156,
    "▁타지": 9157,
    "▁구름이": 9158,
    "▁확인합니다": 9159,
    "▁왼쪽에": 9160,
    "▁사람들입니다": 9161,
    "▁사용량": 9162,
    "▁배송해": 9163,
    "▁디자인입니다": 9164,
    "▁있으": 9165,
    "▁지나가": 9166,
    "정적인": 9167,
    "▁드리면": 9168,
    "▁결과입니다": 9169,
    "▁지키고": 9170,
    "▁옷에": 9171,
    "▁것이라면": 9172,
    "▁줄여야": 9173,
    "▁부하": 9174,
    "▁사랑하기": 9175,
    "▁쓰게": 9176,
    "▁줄거리": 9177,
    "▁적어서": 9178,
    "▁절제": 9179,
    "▁벚꽃이": 9180,
    "▁레스토랑에서": 9181,
    "따라": 9182,
    "뿐": 9183,
    "▁페이지에서": 9184,
    "▁걸고": 9185,
    "▁감염": 9186,
    "▁기업에": 9187,
    "여행을": 9188,
    "버": 9189,
    "안에": 9190,
    "▁위치해": 9191,
    "▁동쪽": 9192,
    "▁비난": 9193,
    "▁놔": 9194,
    "▁구매가": 9195,
    "▁작업할": 9196,
    "지가": 9197,
    "하자": 9198,
    "▁이탈리아에서": 9199,
    "▁두면": 9200,
    "▁아버지와": 9201,
    "▁대우": 9202,
    "▁매트": 9203,
    "▁찾아볼": 9204,
    "▁확인되는": 9205,
    "▁매치": 9206,
    "▁사면": 9207,
    "▁생각하": 9208,
    "▁네팔": 9209,
    "▁취할": 9210,
    "▁병이": 9211,
    "▁먹어보": 9212,
    "▁정신적": 9213,
    "▁j": 9214,
    "시에서": 9215,
    "▁방문객": 9216,
    "▁버리": 9217,
    "▁행동하는": 9218,
    "▁구매하기": 9219,
    "▁놀이터": 9220,
    "시키는": 9221,
    "▁수행할": 9222,
    "x": 9223,
    "사람이": 9224,
    "하였으며": 9225,
    "▁카운터": 9226,
    "▁통관이": 9227,
    "▁역으로": 9228,
    "▁신문에": 9229,
    "▁뉴욕에": 9230,
    "하려는": 9231,
    "▁지내기": 9232,
    "▁전할": 9233,
    "심을": 9234,
    "▁경제에": 9235,
    "▁군인": 9236,
    "▁인스타그램에": 9237,
    "산업": 9238,
    "▁이체": 9239,
    "▁청소년들": 9240,
    "▁마카오": 9241,
    "▁단계에": 9242,
    "▁치열": 9243,
    "퍼": 9244,
    "▁건축가": 9245,
    "▁유로": 9246,
    "▁우리집에": 9247,
    "▁공무원": 9248,
    "▁빨": 9249,
    "▁의논": 9250,
    "▁베이": 9251,
    "▁않으려": 9252,
    "▁불쌍": 9253,
    "▁짓는": 9254,
    "패": 9255,
    "▁지워": 9256,
    "▁모기": 9257,
    "▁겠어": 9258,
    "▁헤": 9259,
    "하더라도": 9260,
    "▁열고": 9261,
    "▁정체": 9262,
    "▁변명": 9263,
    "▁사드": 9264,
    "▁보였": 9265,
    "▁범죄자": 9266,
    "율이": 9267,
    "▁적용한": 9268,
    "▁찾았": 9269,
    "▁신나는": 9270,
    "나갈": 9271,
    "▁여행사에": 9272,
    "사와": 9273,
    "▁인천역": 9274,
    "▁언어로": 9275,
    "▁도매": 9276,
    "▁훼손": 9277,
    "▁육체": 9278,
    "▁주셔": 9279,
    "▁생명체": 9280,
    "▁귀찮아": 9281,
    "▁되돌려": 9282,
    "내로": 9283,
    "▁뮤직비디오": 9284,
    "▁맞출": 9285,
    "▁헬": 9286,
    "▁부지런": 9287,
    "▁왕복": 9288,
    "▁좌절": 9289,
    "▁탄탄": 9290,
    "▁보너스": 9291,
    "에서만": 9292,
    "▁연령": 9293,
    "▁겪는": 9294,
    "▁없잖아": 9295,
    "▁샘": 9296,
    "▁껴": 9297,
    "▁최소화": 9298,
    "▁맞춤": 9299,
    "▁끝났어": 9300,
    "▁재미있었어": 9301,
    "▁아니었어": 9302,
    "▁로맨스": 9303,
    "▁슬플": 9304,
    "▁먹었는데": 9305,
    "▁그렇습니다": 9306,
    "▁두꺼운": 9307,
    "▁맺어": 9308,
    "▁예방접종": 9309,
    "▁제휴": 9310,
    "▁안드로이드": 9311,
    "▁라이프": 9312,
    "▁클립": 9313,
    "▁뛰어납니다": 9314,
    "▁모티브": 9315,
    "▁2013": 9316,
    "▁토핑": 9317,
    "▁소외": 9318,
    "▁걸립니까": 9319,
    "▁안전벨트": 9320,
    "▁체포": 9321,
    "▁스와치": 9322,
    "▁옥": 9323,
    "▁있군요": 9324,
    "▁걸리나요": 9325,
    "▁좋을지": 9326,
    "▁포토샵": 9327,
    "▁보라색": 9328,
    "▁원하신다면": 9329,
    "▁미역": 9330,
    "왔어요": 9331,
    "▁샌프란시스코": 9332,
    "▁반가워요": 9333,
    "▁장미": 9334,
    "▁요청하겠습니다": 9335,
    "▁여보세요": 9336,
    "▁배너": 9337,
    "▁보였습니다": 9338,
    "▁부족하지만": 9339,
    "▁요청하였습니다": 9340,
    "▁항구": 9341,
    "▁재미있었어요": 9342,
    "t": 9343,
    "▁아니었습니다": 9344,
    "▁마셨어요": 9345,
    "▁만들어졌습니다": 9346,
    "▁파워": 9347,
    "▁식량": 9348,
    "▁숨어": 9349,
    "▁다르다는": 9350,
    "▁족발": 9351,
    "▁세부사항": 9352,
    "▁노력했습니다": 9353,
    "▁유행하는": 9354,
    "▁확인되었습니다": 9355,
    "▁되시길": 9356,
    "▁잭": 9357,
    "▁알겠어요": 9358,
    "▁누구인지": 9359,
    "▁좋아했습니다": 9360,
    "▁소비자들에게": 9361,
    "▁전화할게": 9362,
    "▁정품": 9363,
    "▁그레이": 9364,
    "▁보내주시": 9365,
    "▁하였는데": 9366,
    "▁물체": 9367,
    "▁다녀요": 9368,
    "▁자아": 9369,
    "▁오겠습니다": 9370,
    "▁무시할": 9371,
    "▁없나": 9372,
    "▁출근해서": 9373,
    "▁부른": 9374,
    "▁영향이": 9375,
    "▁실용": 9376,
    "▁오랜시간": 9377,
    "▁장애물": 9378,
    "▁상하이": 9379,
    "▁위험에": 9380,
    "▁지향": 9381,
    "▁놀자": 9382,
    "▁독일어": 9383,
    "▁법원": 9384,
    "▁알리고": 9385,
    "▁용품": 9386,
    "▁맛있다": 9387,
    "▁주의해야": 9388,
    "▁배려심": 9389,
    "▁표현하지": 9390,
    "▁진심이": 9391,
    "▁X": 9392,
    "▁환경에서": 9393,
    "▁오전까지": 9394,
    "▁창원": 9395,
    "▁노력해요": 9396,
    "▁인수": 9397,
    "▁용도로": 9398,
    "받을": 9399,
    "▁몇분": 9400,
    "▁날아가": 9401,
    "▁세차": 9402,
    "▁공부합니다": 9403,
    "ing": 9404,
    "▁품질이": 9405,
    "받고": 9406,
    "▁결정하지": 9407,
    "▁날마다": 9408,
    "▁문제점이": 9409,
    "▁PC": 9410,
    "품을": 9411,
    "▁학자": 9412,
    "▁여는": 9413,
    "▁자정": 9414,
    "채로": 9415,
    "▁성별": 9416,
    "▁계실": 9417,
    "▁설명해줘": 9418,
    "▁아니었다": 9419,
    "▁도심": 9420,
    "▁가져오": 9421,
    "▁채우": 9422,
    "▁회식": 9423,
    "▁주문했어요": 9424,
    "▁서면": 9425,
    "▁단기": 9426,
    "▁부서와": 9427,
    "▁버스에서": 9428,
    "▁부문": 9429,
    "▁보관하고": 9430,
    "▁판매되는": 9431,
    "▁해상": 9432,
    "▁공간에": 9433,
    "▁활동적인": 9434,
    "있어": 9435,
    "▁요청하고": 9436,
    "▁고등학생": 9437,
    "▁들어가게": 9438,
    "이었습니다": 9439,
    "▁서류들": 9440,
    "▁전력": 9441,
    "립": 9442,
    "▁맞고": 9443,
    "▁피우는": 9444,
    "▁지불하고": 9445,
    "▁찬성하": 9446,
    "▁대구에서": 9447,
    "▁이달": 9448,
    "▁생각하여": 9449,
    "자로서": 9450,
    "▁정당": 9451,
    "▁시내에": 9452,
    "▁것만으로": 9453,
    "▁수립": 9454,
    "▁복수": 9455,
    "▁응용": 9456,
    "p": 9457,
    "▁점도": 9458,
    "▁고객사에": 9459,
    "▁당황": 9460,
    "▁짝": 9461,
    "▁원가": 9462,
    "▁조지": 9463,
    "▁얼마전": 9464,
    "전히": 9465,
    "▁장비에": 9466,
    "▁나쁘": 9467,
    "▁가시": 9468,
    "▁한동안": 9469,
    "▁다른사람": 9470,
    "봤습니다": 9471,
    "▁내서": 9472,
    "▁통증": 9473,
    "▁있는건가요": 9474,
    "▁생활하고": 9475,
    "주셨으면": 9476,
    "▁도착해": 9477,
    "▁만나기를": 9478,
    "▁경기도": 9479,
    "▁주간": 9480,
    "▁특이": 9481,
    "▁욕망": 9482,
    "▁운동회": 9483,
    "▁막대": 9484,
    "▁가격입니다": 9485,
    "▁저렴": 9486,
    "▁동생과": 9487,
    "▁테이블에": 9488,
    "▁싸고": 9489,
    "▁서쪽": 9490,
    "▁인정받": 9491,
    "▁어울리": 9492,
    "▁동아리에서": 9493,
    "▁원하는지": 9494,
    "점으로": 9495,
    "원으로": 9496,
    "▁생산량": 9497,
    "▁교육과": 9498,
    "▁수학여행": 9499,
    "▁긍정적이": 9500,
    "▁대답이": 9501,
    "▁도시가": 9502,
    "▁제품들에": 9503,
    "▁왜곡": 9504,
    "▁옮기": 9505,
    "하기에": 9506,
    "▁그것으로": 9507,
    "▁흐르": 9508,
    "▁거짓": 9509,
    "▁다를": 9510,
    "▁병에": 9511,
    "▁변경하고": 9512,
    "레이션": 9513,
    "▁입자": 9514,
    "대에": 9515,
    "▁해봐": 9516,
    "▁구하고": 9517,
    "▁간장": 9518,
    "▁일이든": 9519,
    "▁연락해서": 9520,
    "▁충분하": 9521,
    "▁드러": 9522,
    "▁시까지": 9523,
    "▁손질": 9524,
    "▁보도": 9525,
    "▁보낼게": 9526,
    "▁당일에": 9527,
    "▁제안해": 9528,
    "▁입기": 9529,
    "문화": 9530,
    "청": 9531,
    "망": 9532,
    "▁폴": 9533,
    "▁이동하는": 9534,
    "▁먹는것": 9535,
    "▁정렬": 9536,
    "▁교실에": 9537,
    "▁출발할": 9538,
    "▁있었으니": 9539,
    "▁예정일": 9540,
    "▁혼동": 9541,
    "들어": 9542,
    "▁피는": 9543,
    "▁놀다": 9544,
    "▁허락해": 9545,
    "▁포크": 9546,
    "킹": 9547,
    "리에": 9548,
    "님께서": 9549,
    "▁아니기": 9550,
    "만달러": 9551,
    "▁클라이언트": 9552,
    "▁기계에": 9553,
    "▁요청으로": 9554,
    "▁펜션": 9555,
    "▁아시안게임": 9556,
    "▁여행하기": 9557,
    "▁탁자": 9558,
    "▁오시는": 9559,
    "▁인천의": 9560,
    "▁시작된": 9561,
    "▁잇": 9562,
    "▁선이": 9563,
    "▁화폐": 9564,
    "▁죄송": 9565,
    "▁근로자": 9566,
    "합시다": 9567,
    "▁이유에": 9568,
    "▁항공편": 9569,
    "▁주님": 9570,
    "▁살아가": 9571,
    "▁카지노": 9572,
    "▁언젠": 9573,
    "▁수준이": 9574,
    "▁착각": 9575,
    "▁우는": 9576,
    "▁번째로는": 9577,
    "▁자존심": 9578,
    "▁갈아입": 9579,
    "▁시끄럽": 9580,
    "▁저작권": 9581,
    "▁해변에": 9582,
    "땐": 9583,
    "▁시안": 9584,
    "▁제공한": 9585,
    "▁진료를": 9586,
    "▁비로": 9587,
    "▁경제학": 9588,
    "▁V": 9589,
    "▁버릇": 9590,
    "▁최근에는": 9591,
    "▁농장": 9592,
    "했나요": 9593,
    "▁칩": 9594,
    "에게도": 9595,
    "▁신입생": 9596,
    "▁세미나": 9597,
    "▁보내드릴": 9598,
    "▁브라운": 9599,
    "집에": 9600,
    "▁넷": 9601,
    "너스": 9602,
    "▁추출": 9603,
    "▁진지하": 9604,
    "▁재주": 9605,
    "▁안정감": 9606,
    "도중에": 9607,
    "▁암기": 9608,
    "▁멈춰": 9609,
    "▁소망": 9610,
    "▁이사할": 9611,
    "▁좌우": 9612,
    "게요": 9613,
    "▁변함": 9614,
    "▁농업": 9615,
    "▁찾으려": 9616,
    "▁블라우스": 9617,
    "▁잠재력": 9618,
    "▁흘려": 9619,
    "▁사회복지": 9620,
    "▁반갑": 9621,
    "▁놀았어": 9622,
    "▁같았어": 9623,
    "▁귀중": 9624,
    "▁샌프란시스코에": 9625,
    "▁않았는데": 9626,
    "▁알겠어": 9627,
    "▁사냥": 9628,
    "▁가을이": 9629,
    "▁안좋은": 9630,
    "▁invoice": 9631,
    "▁가라오케": 9632,
    "▁갤럭시": 9633,
    "▁고맙겠습니다": 9634,
    "▁낮춰": 9635,
    "▁닿지": 9636,
    "▁뒤늦": 9637,
    "▁박근혜": 9638,
    "▁옮길": 9639,
    "▁유니폼": 9640,
    "▁이끄는": 9641,
    "▁인터페이스": 9642,
    "▁줄넘기": 9643,
    "▁퍼포먼스": 9644,
    "▁스테인리스": 9645,
    "▁유기농": 9646,
    "▁이것저것": 9647,
    "▁데미지": 9648,
    "▁하드웨어": 9649,
    "▁여드름": 9650,
    "▁일어납니다": 9651,
    "▁토너": 9652,
    "▁없으니까": 9653,
    "▁싶으세요": 9654,
    "▁비쌉니다": 9655,
    "▁외로움": 9656,
    "▁마라톤": 9657,
    "▁캡처": 9658,
    "▁깨달았습니다": 9659,
    "▁아쉽습니다": 9660,
    "▁악마": 9661,
    "▁언덕": 9662,
    "▁예능": 9663,
    "▁정답": 9664,
    "▁유기견": 9665,
    "▁두드려": 9666,
    "▁야근": 9667,
    "▁예정인데": 9668,
    "▁퍼져": 9669,
    "▁불립니다": 9670,
    "▁알기로는": 9671,
    "▁가이드라인": 9672,
    "▁잡았어요": 9673,
    "▁코끼리": 9674,
    "▁파견": 9675,
    "▁빠졌습니다": 9676,
    "▁선정되었습니다": 9677,
    "▁맞춤형": 9678,
    "▁텐트": 9679,
    "▁보았어": 9680,
    "▁호박": 9681,
    "▁석유": 9682,
    "▁스크래치": 9683,
    "▁짠": 9684,
    "▁프로그래밍": 9685,
    "▁스탬프": 9686,
    "▁토큰": 9687,
    "▁레이저": 9688,
    "▁판단됩니다": 9689,
    "▁일어났어요": 9690,
    "▁세균": 9691,
    "▁정밀": 9692,
    "▁기쁘고": 9693,
    "▁벤": 9694,
    "▁빅": 9695,
    "▁활약": 9696,
    "▁액체": 9697,
    "▁몸으로": 9698,
    "▁지나간": 9699,
    "▁선호해요": 9700,
    "▁낮습니다": 9701,
    "▁어머님": 9702,
    "▁아울": 9703,
    "▁내구성": 9704,
    "▁올라오": 9705,
    "목": 9706,
    "▁적정": 9707,
    "▁확정되면": 9708,
    "▁표시됩니다": 9709,
    "▁뽑아": 9710,
    "▁빕니다": 9711,
    "▁말입니까": 9712,
    "▁사장님께서": 9713,
    "▁탐방": 9714,
    "▁전문점입니다": 9715,
    "▁느끼며": 9716,
    "▁불닭": 9717,
    "▁무선": 9718,
    "▁했니": 9719,
    "▁실용성": 9720,
    "▁3000": 9721,
    "▁흰": 9722,
    "▁기도합니다": 9723,
    "▁되었습니까": 9724,
    "▁접착제": 9725,
    "▁마모": 9726,
    "▁놀아요": 9727,
    "해달라고": 9728,
    "▁편해요": 9729,
    "▁신기한": 9730,
    "▁계좌에": 9731,
    "▁냄비에": 9732,
    "▁미사일": 9733,
    "▁지낸": 9734,
    "▁화면이": 9735,
    "▁고객으로부터": 9736,
    "▁단말기": 9737,
    "▁남산": 9738,
    "▁인성": 9739,
    "치를": 9740,
    "▁큐": 9741,
    "▁되니까": 9742,
    "▁손바닥": 9743,
    "▁전파": 9744,
    "▁하위": 9745,
    "▁미숙": 9746,
    "▁보셨나요": 9747,
    "▁진행상황": 9748,
    "▁또래": 9749,
    "▁발송이": 9750,
    "▁해결될": 9751,
    "분입니다": 9752,
    "▁급격": 9753,
    "정작": 9754,
    "▁지내요": 9755,
    "▁사용하시면": 9756,
    "▁사태": 9757,
    "▁다루고": 9758,
    "▁이동합니다": 9759,
    "▁많으면": 9760,
    "▁푸드": 9761,
    "▁풍": 9762,
    "▁분비": 9763,
    "▁유감스럽게도": 9764,
    "▁바뀐": 9765,
    "▁학문": 9766,
    "▁성실한": 9767,
    "▁기상": 9768,
    "▁물놀이": 9769,
    "▁임대": 9770,
    "▁드리며": 9771,
    "▁방문했어요": 9772,
    "▁동대문": 9773,
    "▁포근": 9774,
    "▁직원들에게": 9775,
    "▁경우에만": 9776,
    "▁엠": 9777,
    "▁오프": 9778,
    "▁봄에": 9779,
    "감": 9780,
    "▁깔끔하": 9781,
    "▁카페입니다": 9782,
    "▁마셔서": 9783,
    "▁닮았다": 9784,
    "▁재확인": 9785,
    "▁팬들": 9786,
    "▁적용된": 9787,
    "▁의하면": 9788,
    "▁저희와": 9789,
    "▁비치": 9790,
    "▁하시겠습니까": 9791,
    "▁외출할": 9792,
    "▁완벽하지": 9793,
    "▁신호등": 9794,
    "▁세월": 9795,
    "▁되었는데": 9796,
    "▁실시간으로": 9797,
    "▁전달합니다": 9798,
    "▁심해서": 9799,
    "▁부분적으로": 9800,
    "▁그중에": 9801,
    "▁보유한": 9802,
    "▁성장하는": 9803,
    "▁제작할": 9804,
    "▁옆집": 9805,
    "▁표시되": 9806,
    "▁이민": 9807,
    "▁고객님께": 9808,
    "▁영토": 9809,
    "▁박수": 9810,
    "▁데려가": 9811,
    "▁경제적인": 9812,
    "▁싸워": 9813,
    "▁시켜야": 9814,
    "▁지켜봐": 9815,
    "▁당첨": 9816,
    "▁걱정입니다": 9817,
    "▁갈때": 9818,
    "▁지원자": 9819,
    "했습니까": 9820,
    "▁해왔습니다": 9821,
    "▁깨끗하고": 9822,
    "▁에스": 9823,
    "생": 9824,
    "▁결과적으로": 9825,
    "▁배송료": 9826,
    "▁다량": 9827,
    "▁진화": 9828,
    "▁노래방에": 9829,
    "▁없으": 9830,
    "▁맞추기": 9831,
    "▁안주": 9832,
    "▁게이트": 9833,
    "말을": 9834,
    "▁원하는것": 9835,
    "단지": 9836,
    "▁해달라고": 9837,
    "님": 9838,
    "▁딜러": 9839,
    "▁세번째로": 9840,
    "▁생각지": 9841,
    "이든": 9842,
    "▁인간관계": 9843,
    "▁제조업": 9844,
    "▁찾아내": 9845,
    "▁환영": 9846,
    "▁대학생들": 9847,
    "▁자기야": 9848,
    "▁메일에서": 9849,
    "▁답답해": 9850,
    "▁바꾸어": 9851,
    "▁하늘에": 9852,
    "▁차도": 9853,
    "▁판매하지": 9854,
    "▁찾았다": 9855,
    "▁감사함": 9856,
    "▁있으시다": 9857,
    "▁생각해야": 9858,
    "▁당하고": 9859,
    "▁타사": 9860,
    "▁사랑받는": 9861,
    "기는": 9862,
    "▁연주하는": 9863,
    "▁빙": 9864,
    "입": 9865,
    "▁요리에": 9866,
    "▁책입니다": 9867,
    "▁소심": 9868,
    "▁웃으면": 9869,
    "▁홈페이지에서": 9870,
    "▁사용료": 9871,
    "▁들어가지": 9872,
    "▁나기": 9873,
    "▁맞서": 9874,
    "요리": 9875,
    "하진": 9876,
    "▁구매하려": 9877,
    "▁추가해서": 9878,
    "▁알아보는": 9879,
    "데요": 9880,
    "▁도착하고": 9881,
    "▁지치": 9882,
    "▁CD": 9883,
    "▁못했을": 9884,
    "▁신발에": 9885,
    "▁변해": 9886,
    "▁전시회에": 9887,
    "▁스포츠에": 9888,
    "▁변하는": 9889,
    "▁추측": 9890,
    "▁부과": 9891,
    "▁아이에게": 9892,
    "▁사자": 9893,
    "▁차고": 9894,
    "▁가능할지": 9895,
    "▁흥분": 9896,
    "▁업체들": 9897,
    "▁승객들": 9898,
    "회사": 9899,
    "▁헬스장에": 9900,
    "▁나비": 9901,
    "함에": 9902,
    "소리를": 9903,
    "▁지장": 9904,
    "▁씨에게": 9905,
    "▁감정에": 9906,
    "블": 9907,
    "▁복귀": 9908,
    "품": 9909,
    "▁지나서": 9910,
    "▁창출": 9911,
    "▁부자": 9912,
    "▁캄보디아": 9913,
    "▁숙지": 9914,
    "▁책에서": 9915,
    "▁되었": 9916,
    "▁질서": 9917,
    "▁재배": 9918,
    "▁조심해": 9919,
    "률": 9920,
    "▁서식": 9921,
    "▁원두": 9922,
    "▁가시는": 9923,
    "▁생활하는": 9924,
    "▁냉": 9925,
    "정도": 9926,
    "쳐": 9927,
    "▁공원이": 9928,
    "▁내어": 9929,
    "▁주머니": 9930,
    "▁나타내": 9931,
    "▁들어가고": 9932,
    "▁평": 9933,
    "▁역에": 9934,
    "▁파악하고": 9935,
    "▁돌아다니": 9936,
    "▁전날": 9937,
    "▁인정하": 9938,
    "▁막걸리": 9939,
    "▁구매하는": 9940,
    "▁어디서든": 9941,
    "흔한": 9942,
    "▁보내니": 9943,
    "▁소진": 9944,
    "▁유용하": 9945,
    "▁배에": 9946,
    "▁하지요": 9947,
    "▁여쭤": 9948,
    "▁생리": 9949,
    "▁레스토랑에": 9950,
    "계획": 9951,
    "▁맞을": 9952,
    "▁향상에": 9953,
    "▁오더에": 9954,
    "▁신념": 9955,
    "이죠": 9956,
    "▁양쪽": 9957,
    "▁어제와": 9958,
    "하여야": 9959,
    "▁함으로": 9960,
    "▁계곡": 9961,
    "▁희망이": 9962,
    "▁아닌가": 9963,
    "▁발견되": 9964,
    "▁일년": 9965,
    "▁성이": 9966,
    "장과": 9967,
    "점에서": 9968,
    "▁검": 9969,
    "팔": 9970,
    "▁제작에": 9971,
    "▁참을": 9972,
    "졌어요": 9973,
    "▁정정": 9974,
    "▁부평": 9975,
    "▁선의": 9976,
    "밀": 9977,
    "▁없다는것": 9978,
    "▁찌": 9979,
    "▁벌기": 9980,
    "▁무엇으로": 9981,
    "▁콘": 9982,
    "피트": 9983,
    "▁준다는": 9984,
    "▁미로": 9985,
    "귀": 9986,
    "뿐인": 9987,
    "▁사용했던": 9988,
    "▁문의에": 9989,
    "▁권한을": 9990,
    "빨리": 9991,
    "▁우울해": 9992,
    "▁씨와": 9993,
    "▁모르니": 9994,
    "▁스카이": 9995,
    "▁제작하고": 9996,
    "능": 9997,
    "▁유의": 9998,
    "▁차량에": 9999,
    "녀": 10000,
    "▁동아리에": 10001,
    "▁유람선": 10002,
    "화된": 10003,
    "▁때보다": 10004,
    "▁스태프": 10005,
    "▁베어": 10006,
    "▁진주": 10007,
    "▁변환": 10008,
    "▁반성": 10009,
    "봤어요": 10010,
    "▁소수": 10011,
    "▁어떻": 10012,
    "▁따르는": 10013,
    "보니": 10014,
    "▁어리석": 10015,
    "▁우주에": 10016,
    "▁가볼": 10017,
    "▁셀러": 10018,
    "▁위험을": 10019,
    "▁새해에": 10020,
    "▁랩": 10021,
    "▁자랑스러워": 10022,
    "▁정할": 10023,
    "▁귀걸이": 10024,
    "▁서툴러": 10025,
    "▁돌아왔어": 10026,
    "▁바탕": 10027,
    "▁개인적": 10028,
    "▁180": 10029,
    "▁반입": 10030,
    "▁같으니": 10031,
    "▁네트워킹": 10032,
    "▁듬뿍": 10033,
    "▁젓가락": 10034,
    "▁탔습니다": 10035,
    "▁금메달": 10036,
    "▁온난화": 10037,
    "▁회원가입": 10038,
    "▁스웨터": 10039,
    "▁트레이닝": 10040,
    "▁반려동물": 10041,
    "▁유통기한": 10042,
    "▁자연재해": 10043,
    "▁기다림": 10044,
    "▁계십니까": 10045,
    "▁어땠나요": 10046,
    "▁퓨전": 10047,
    "▁납득": 10048,
    "▁프라하": 10049,
    "▁어딜": 10050,
    "▁사라질": 10051,
    "▁완화": 10052,
    "▁앞당겨": 10053,
    "▁운반": 10054,
    "▁실크": 10055,
    "▁마칩니다": 10056,
    "임에": 10057,
    "▁평화로운": 10058,
    "▁한정식": 10059,
    "▁기도할게": 10060,
    "▁저만": 10061,
    "▁연계": 10062,
    "▁여왕": 10063,
    "▁가져온": 10064,
    "▁오케스트라": 10065,
    "▁스피커": 10066,
    "▁의류": 10067,
    "▁견해": 10068,
    "▁포커스": 10069,
    "▁악보": 10070,
    "▁리드": 10071,
    "▁한숨": 10072,
    "▁상쾌한": 10073,
    "▁봤을때": 10074,
    "▁재난": 10075,
    "▁리얼": 10076,
    "▁세척": 10077,
    "▁발언": 10078,
    "▁농부": 10079,
    "▁찾을수": 10080,
    "▁도보": 10081,
    "▁앤디": 10082,
    "▁거잖아": 10083,
    "▁잡니다": 10084,
    "▁이용하세요": 10085,
    "▁가꾸어": 10086,
    "▁대도시": 10087,
    "▁행복했으면": 10088,
    "▁돌아왔어요": 10089,
    "▁컨트롤러": 10090,
    "▁연락하겠습니다": 10091,
    "▁레이어": 10092,
    "▁보이는데": 10093,
    "▁패밀리": 10094,
    "▁줌": 10095,
    "으세요": 10096,
    "▁기다리세요": 10097,
    "▁맡길": 10098,
    "▁지금보다": 10099,
    "▁구속": 10100,
    "▁확신합니다": 10101,
    "▁폴더": 10102,
    "▁부장님": 10103,
    "▁드시고": 10104,
    "▁검진": 10105,
    "▁치약": 10106,
    "▁있을게요": 10107,
    "▁공제": 10108,
    "▁주문할게요": 10109,
    "▁sk": 10110,
    "▁비싸요": 10111,
    "▁체형": 10112,
    "▁불편해요": 10113,
    "▁촉진": 10114,
    "▁물었습니다": 10115,
    "▁늦어져서": 10116,
    "▁입장권": 10117,
    "▁금액으로": 10118,
    "자들에게": 10119,
    "▁상징하는": 10120,
    "▁알려드릴게요": 10121,
    "▁없었고": 10122,
    "▁가집니다": 10123,
    "▁슬퍼요": 10124,
    "▁다룰": 10125,
    "▁그림에": 10126,
    "▁거였어": 10127,
    "▁진동": 10128,
    "▁등재": 10129,
    "▁핑크": 10130,
    "▁언론": 10131,
    "▁날에는": 10132,
    "▁적도": 10133,
    "▁들러": 10134,
    "▁공짜로": 10135,
    "▁정돈": 10136,
    "▁더블": 10137,
    "▁파랑": 10138,
    "▁러닝": 10139,
    "▁무늬": 10140,
    "▁몰아": 10141,
    "▁시급": 10142,
    "▁봐주세요": 10143,
    "▁휴일이": 10144,
    "▁차액": 10145,
    "▁공연이": 10146,
    "▁계층": 10147,
    "구를": 10148,
    "▁유감": 10149,
    "▁유지합니다": 10150,
    "▁수납": 10151,
    "▁지속가능": 10152,
    "▁거칠": 10153,
    "▁하든지": 10154,
    "▁중요하지만": 10155,
    "▁남아있": 10156,
    "▁됐으면": 10157,
    "▁믿기": 10158,
    "▁IT": 10159,
    "▁농도": 10160,
    "▁지루한": 10161,
    "▁개정": 10162,
    "▁편할": 10163,
    "▁만족하지": 10164,
    "▁화제": 10165,
    "▁네티즌은": 10166,
    "▁연락해주세요": 10167,
    "▁헤어진": 10168,
    "▁선생님께서": 10169,
    "▁확인되지": 10170,
    "시입니다": 10171,
    "▁백인": 10172,
    "▁좋아했어요": 10173,
    "▁요청해요": 10174,
    "▁끝없": 10175,
    "▁이용해요": 10176,
    "▁크기에": 10177,
    "▁먹으": 10178,
    "▁치지": 10179,
    "▁참가할": 10180,
    "▁커피숍": 10181,
    "▁넓고": 10182,
    "▁자석": 10183,
    "▁얹": 10184,
    "▁되었으니": 10185,
    "▁조사해": 10186,
    "▁답해": 10187,
    "듯": 10188,
    "▁실적": 10189,
    "▁우선순위": 10190,
    "▁영화로": 10191,
    "치가": 10192,
    "▁신청한": 10193,
    "▁붙여서": 10194,
    "줘야": 10195,
    "료를": 10196,
    "▁제시해": 10197,
    "▁않았": 10198,
    "▁걷기": 10199,
    "▁바깥": 10200,
    "▁지은": 10201,
    "▁분말": 10202,
    "▁다녀오": 10203,
    "▁구하기": 10204,
    "▁재계": 10205,
    "▁하루만": 10206,
    "▁주중에": 10207,
    "겠다": 10208,
    "▁산소": 10209,
    "▁친구인": 10210,
    "▁시료": 10211,
    "▁높이기": 10212,
    "름": 10213,
    "▁들어오": 10214,
    "▁되자": 10215,
    "▁없었을": 10216,
    "▁불편해": 10217,
    "▁돌아가야": 10218,
    "위해": 10219,
    "▁화분": 10220,
    "거든": 10221,
    "렛": 10222,
    "▁흘러": 10223,
    "▁동네에서": 10224,
    "▁어플": 10225,
    "▁품에": 10226,
    "▁부당": 10227,
    "▁표기되어": 10228,
    "▁자료들": 10229,
    "▁의존": 10230,
    "▁계시는": 10231,
    "▁듣기로": 10232,
    "▁배달해": 10233,
    "▁많은데": 10234,
    "▁멤버들이": 10235,
    "10": 10236,
    "▁흔들": 10237,
    "▁스마트폰에": 10238,
    "▁찾아보": 10239,
    "▁유명해": 10240,
    "▁왔다고": 10241,
    "폰": 10242,
    "▁두부": 10243,
    "▁전산": 10244,
    "▁구이": 10245,
    "팀에서": 10246,
    "▁게스트하우스에": 10247,
    "▁크리스": 10248,
    "▁태양이": 10249,
    "▁입안": 10250,
    "▁룰": 10251,
    "▁아이템들": 10252,
    "▁싫어서": 10253,
    "▁마케팅에": 10254,
    "▁작성하여": 10255,
    "시다": 10256,
    "▁혼자만": 10257,
    "▁아니지": 10258,
    "▁고향이": 10259,
    "마일": 10260,
    "▁하지는": 10261,
    "▁진지": 10262,
    "먹고": 10263,
    "주에": 10264,
    "▁해야지": 10265,
    "▁지불하는": 10266,
    "▁중소기업": 10267,
    "▁터미널에": 10268,
    "▁코코": 10269,
    "▁랍": 10270,
    "▁잠들": 10271,
    "▁끝났": 10272,
    "봅니다": 10273,
    "▁해야겠다": 10274,
    "▁압박": 10275,
    "보면": 10276,
    "▁한주": 10277,
    "▁웹사이트에": 10278,
    "▁이기는": 10279,
    "시장": 10280,
    "▁경우에도": 10281,
    "▁드시는": 10282,
    "▁주입": 10283,
    "▁관광객들": 10284,
    "▁해보세요": 10285,
    "웠던": 10286,
    "▁강해": 10287,
    "▁짜증나": 10288,
    "▁처리하는": 10289,
    "▁배경이": 10290,
    "▁세번": 10291,
    "쪽에": 10292,
    "되었다": 10293,
    "▁대상자": 10294,
    "하자마자": 10295,
    "▁중시하": 10296,
    "카": 10297,
    "▁시대에": 10298,
    "▁연락한": 10299,
    "▁책상에": 10300,
    "▁팔로우": 10301,
    "▁관대": 10302,
    "▁지불한": 10303,
    "▁초안": 10304,
    "보아야": 10305,
    "▁모토": 10306,
    "▁벗겨": 10307,
    "각": 10308,
    "롭게": 10309,
    "법은": 10310,
    "▁슬라이드": 10311,
    "았던": 10312,
    "명입니다": 10313,
    "▁너만": 10314,
    "▁책들": 10315,
    "▁런던에": 10316,
    "▁정부와": 10317,
    "▁빠르": 10318,
    "▁카메라에": 10319,
    "▁일어나기": 10320,
    "▁금전적": 10321,
    "▁공간으로": 10322,
    "▁응대": 10323,
    "▁모든것들": 10324,
    "▁단계로": 10325,
    "▁들어와": 10326,
    "▁나가고": 10327,
    "슬": 10328,
    "▁중앙에": 10329,
    "▁격": 10330,
    "정해야": 10331,
    "▁멈추": 10332,
    "거는": 10333,
    "▁일본으로": 10334,
    "▁추구하는": 10335,
    "▁자신에": 10336,
    "▁요구한": 10337,
    "▁성의": 10338,
    "▁운동할": 10339,
    "▁백화점에": 10340,
    "▁탈출": 10341,
    "이라니": 10342,
    "▁따르": 10343,
    "▁뚜렷": 10344,
    "▁질을": 10345,
    "▁탁구": 10346,
    "▁생각했던": 10347,
    "▁수명": 10348,
    "▁해결하고": 10349,
    "▁대화하고": 10350,
    "▁만족할": 10351,
    "▁영혼이": 10352,
    "▁세계로": 10353,
    "되나요": 10354,
    "▁연구자": 10355,
    "▁고려한": 10356,
    "▁식단": 10357,
    "▁보내줄게": 10358,
    "▁천국": 10359,
    "▁푼": 10360,
    "▁온수": 10361,
    "쇼": 10362,
    "z": 10363,
    "▁연수": 10364,
    "빈": 10365,
    "▁애도": 10366,
    "▁매장이": 10367,
    "▁재미있어": 10368,
    "▁광고에": 10369,
    "렇게": 10370,
    "▁사용하실": 10371,
    "▁이대로": 10372,
    "▁옷장": 10373,
    "▁섬에": 10374,
    "부에": 10375,
    "▁하기전": 10376,
    "▁이름만": 10377,
    "하려": 10378,
    "▁후부터": 10379,
    "▁도발": 10380,
    "매사에": 10381,
    "▁못하기": 10382,
    "으므로": 10383,
    "샵": 10384,
    "대에서": 10385,
    "답": 10386,
    "▁공장이": 10387,
    "▁업데이트를": 10388,
    "▁스마트폰이": 10389,
    "▁묻어": 10390,
    "▁되었다고": 10391,
    "끔": 10392,
    "▁바삭": 10393,
    "▁성격과": 10394,
    "텐": 10395,
    "▁표면에": 10396,
    "하시려면": 10397,
    "▁불빛": 10398,
    "▁되었기": 10399,
    "▁떨": 10400,
    "▁앉": 10401,
    "▁엄": 10402,
    "큰": 10403,
    "▁대학원": 10404,
    "▁솔직": 10405,
    "코드": 10406,
    "▁렌트": 10407,
    "▁유쾌": 10408,
    "▁곳곳에": 10409,
    "▁이득": 10410,
    "데이": 10411,
    "▁로션": 10412,
    "억원": 10413,
    "▁지인들": 10414,
    "▁도착했다": 10415,
    "▁모이": 10416,
    "▁명사": 10417,
    "▁야구장": 10418,
    "▁이쁜": 10419,
    "▁비싸지": 10420,
    "걸까요": 10421,
    "▁몇시까지": 10422,
    "▁발전할": 10423,
    "▁확인해줘": 10424,
    "▁저주": 10425,
    "▁치면": 10426,
    "▁필요하다는": 10427,
    "▁서점": 10428,
    "▁제친구": 10429,
    "▁안해": 10430,
    "▁잇는": 10431,
    "▁카트": 10432,
    "▁넷째": 10433,
    "▁찬성": 10434,
    "▁나간": 10435,
    "▁예측할": 10436,
    "▁이불을": 10437,
    "▁줄리엣": 10438,
    "해준": 10439,
    "▁모국어": 10440,
    "▁다르": 10441,
    "▁기술적": 10442,
    "▁증권": 10443,
    "▁바람에": 10444,
    "▁내친구": 10445,
    "졌는지": 10446,
    "▁U": 10447,
    "▁강의실": 10448,
    "당한": 10449,
    "▁어린아이": 10450,
    "▁첨가": 10451,
    "▁전철": 10452,
    "▁지위": 10453,
    "▁매표소": 10454,
    "▁쓰이": 10455,
    "▁귀여워": 10456,
    "▁고마웠어": 10457,
    "▁상황이라": 10458,
    "▁기대돼": 10459,
    "▁완": 10460,
    "▁부끄러워": 10461,
    "▁프린팅": 10462,
    "▁플러그인": 10463,
    "▁걸렸어": 10464,
    "셜": 10465,
    "▁점프": 10466,
    "▁아플": 10467,
    "▁포럼": 10468,
    "▁밸런타인": 10469,
    "▁찾게": 10470,
    "▁컴플레인": 10471,
    "▁텀블러": 10472,
    "▁파우치": 10473,
    "▁횟수": 10474,
    "▁고마움": 10475,
    "▁뛰어넘": 10476,
    "▁만납시다": 10477,
    "▁퍼즐": 10478,
    "▁팝업": 10479,
    "▁침투": 10480,
    "▁깊었습니다": 10481,
    "▁선인장": 10482,
    "▁타협": 10483,
    "▁기쁘다": 10484,
    "▁바쁩니다": 10485,
    "▁올리브": 10486,
    "▁체벌": 10487,
    "▁폰트": 10488,
    "▁팝콘": 10489,
    "▁고품질": 10490,
    "▁자부심": 10491,
    "▁연꽃": 10492,
    "▁모카": 10493,
    "▁소개팅": 10494,
    "▁청량": 10495,
    "▁복사본": 10496,
    "▁남북": 10497,
    "▁미칩니다": 10498,
    "▁핑계": 10499,
    "▁보였어": 10500,
    "▁동그": 10501,
    "▁늘어날": 10502,
    "▁여태": 10503,
    "▁자랑스러운": 10504,
    "▁치매": 10505,
    "▁대상이": 10506,
    "▁작별": 10507,
    "▁스페이스": 10508,
    "▁카레": 10509,
    "▁느껴졌습니다": 10510,
    "▁입금하겠습니다": 10511,
    "▁귀국": 10512,
    "▁스릴러": 10513,
    "▁재벌": 10514,
    "▁침묵": 10515,
    "▁펌프": 10516,
    "▁찾으세요": 10517,
    "▁합니": 10518,
    "▁밤새": 10519,
    "▁나쁘다고": 10520,
    "▁즐기면서": 10521,
    "▁들어갔습니다": 10522,
    "▁팔찌": 10523,
    "▁읽었습니다": 10524,
    "▁클라우드": 10525,
    "▁없었지만": 10526,
    "▁완료하였습니다": 10527,
    "▁녹색": 10528,
    "▁자켓": 10529,
    "▁소소": 10530,
    "▁찰스": 10531,
    "▁올립니다": 10532,
    "▁절실": 10533,
    "▁취소되었습니다": 10534,
    "▁살아온": 10535,
    "▁생각하십니까": 10536,
    "▁초록": 10537,
    "▁체온": 10538,
    "▁고작": 10539,
    "▁부피": 10540,
    "▁실패했습니다": 10541,
    "▁떨어졌어요": 10542,
    "▁면역력": 10543,
    "▁음력": 10544,
    "▁가봐야": 10545,
    "▁삼바": 10546,
    "▁60%": 10547,
    "▁불면증": 10548,
    "▁않으며": 10549,
    "▁기도할게요": 10550,
    "▁발권": 10551,
    "▁원하세요": 10552,
    "▁선생": 10553,
    "▁국어": 10554,
    "▁싶니": 10555,
    "▁차이나타운": 10556,
    "▁단속": 10557,
    "▁문제인": 10558,
    "▁밀접": 10559,
    "▁사우나": 10560,
    "▁토스트": 10561,
    "▁유령": 10562,
    "▁보름달": 10563,
    "▁요구사항": 10564,
    "▁그려진": 10565,
    "▁잔돈": 10566,
    "▁핸들": 10567,
    "▁포도주": 10568,
    "▁먹을까": 10569,
    "▁부탁드릴게요": 10570,
    "▁사라져": 10571,
    "▁기대됩니다": 10572,
    "▁반대합니다": 10573,
    "▁베스트": 10574,
    "▁오스트리아": 10575,
    "▁생각했는데": 10576,
    "▁마술사": 10577,
    "▁이어져": 10578,
    "▁600": 10579,
    "▁화산": 10580,
    "▁코치": 10581,
    "▁젤리": 10582,
    "▁하차": 10583,
    "했으니": 10584,
    "▁충격적인": 10585,
    "▁문제없이": 10586,
    "▁커리": 10587,
    "▁혈압": 10588,
    "▁바라볼": 10589,
    "▁타이": 10590,
    "▁귀찮": 10591,
    "▁돌려받을": 10592,
    "▁돋보이": 10593,
    "▁양도": 10594,
    "▁민감한": 10595,
    "주었다": 10596,
    "▁비용으로": 10597,
    "▁보정": 10598,
    "▁물어봤어": 10599,
    "▁참조해": 10600,
    "▁갑니까": 10601,
    "▁샘플에": 10602,
    "▁맨유": 10603,
    "▁신랑": 10604,
    "▁규칙적인": 10605,
    "▁외국인들에게": 10606,
    "▁구멍이": 10607,
    "▁맡기고": 10608,
    "▁버거": 10609,
    "▁벌어서": 10610,
    "▁사형": 10611,
    "▁순대": 10612,
    "▁형편없": 10613,
    "▁모으": 10614,
    "▁브리": 10615,
    "▁나오게": 10616,
    "▁신분": 10617,
    "▁느끼기에": 10618,
    "▁수요일까지": 10619,
    "▁가곤": 10620,
    "▁편의점에서": 10621,
    "▁한편으로": 10622,
    "▁했었다": 10623,
    "▁카피": 10624,
    "봐야": 10625,
    "▁설정이": 10626,
    "▁절차에": 10627,
    "▁공부해요": 10628,
    "▁눈길": 10629,
    "▁여정": 10630,
    "▁아픈데": 10631,
    "▁길거리에서": 10632,
    "원이에요": 10633,
    "▁상표": 10634,
    "▁좋다는": 10635,
    "시나요": 10636,
    "▁상상력": 10637,
    "▁낭만적인": 10638,
    "▁구매했어요": 10639,
    "▁입대": 10640,
    "▁빌리고": 10641,
    "▁멀어": 10642,
    "▁일요일까지": 10643,
    "▁요건": 10644,
    "▁진행했던": 10645,
    "▁미안한": 10646,
    "▁멋지고": 10647,
    "▁인턴으로": 10648,
    "▁싶었다": 10649,
    "▁패널": 10650,
    "▁야외에서": 10651,
    "▁남쪽": 10652,
    "▁했었는데": 10653,
    "▁대하는": 10654,
    "▁기재되어": 10655,
    "▁줄까": 10656,
    "▁갖기": 10657,
    "▁즐거웠": 10658,
    "쳐서": 10659,
    "▁당신으로부터": 10660,
    "▁칼로": 10661,
    "▁오브": 10662,
    "▁부르고": 10663,
    "▁의자에": 10664,
    "▁두었습니다": 10665,
    "▁평등": 10666,
    "▁부족함": 10667,
    "▁돌보는": 10668,
    "▁난방": 10669,
    "▁위험성": 10670,
    "▁만나자고": 10671,
    "▁기숙사에서": 10672,
    "▁분석해": 10673,
    "▁의미입니다": 10674,
    "▁정면": 10675,
    "▁율": 10676,
    "▁참여한": 10677,
    "▁지났": 10678,
    "▁위생": 10679,
    "▁가량": 10680,
    "▁하도": 10681,
    "▁미치지": 10682,
    "▁나아지": 10683,
    "▁썼": 10684,
    "▁입양": 10685,
    "▁철도": 10686,
    "▁자유의": 10687,
    "▁보내시길": 10688,
    "▁얘기한": 10689,
    "▁환전": 10690,
    "척": 10691,
    "▁시련": 10692,
    "▁작곡가": 10693,
    "▁연구에서": 10694,
    "▁비유": 10695,
    "▁청소년기": 10696,
    "▁분할": 10697,
    "▁트": 10698,
    "▁답변은": 10699,
    "▁한류": 10700,
    "▁홍보하는": 10701,
    "▁세제": 10702,
    "▁여자애": 10703,
    "▁바이어와": 10704,
    "▁리사": 10705,
    "▁신뢰성": 10706,
    "▁극대화": 10707,
    "▁부모님에게": 10708,
    "▁잘해서": 10709,
    "▁뜻으로": 10710,
    "▁광장": 10711,
    "▁물어보": 10712,
    "▁바꾸면": 10713,
    "▁있음으로": 10714,
    "▁방문자": 10715,
    "▁물어볼": 10716,
    "▁온다": 10717,
    "▁유저들": 10718,
    "으려고": 10719,
    "▁생각해보": 10720,
    "▁재현": 10721,
    "▁결혼하기": 10722,
    "▁보스턴": 10723,
    "▁인지도": 10724,
    "▁진실이": 10725,
    "▁조이": 10726,
    "▁걱정하고": 10727,
    "▁관광지로": 10728,
    "▁건강과": 10729,
    "▁팔아": 10730,
    "▁보여서": 10731,
    "▁반년": 10732,
    "▁최악": 10733,
    "▁쿠": 10734,
    "▁불교": 10735,
    "▁지원이": 10736,
    "▁통지": 10737,
    "▁참조하시": 10738,
    "▁일생": 10739,
    "▁아파트에서": 10740,
    "▁알려주신": 10741,
    "되었으면": 10742,
    "▁보는데": 10743,
    "▁병행": 10744,
    "▁문장은": 10745,
    "▁할당": 10746,
    "▁피어": 10747,
    "▁본질": 10748,
    "▁서비스입니다": 10749,
    "▁따를": 10750,
    "▁대만에서": 10751,
    "▁두시간": 10752,
    "▁에어컨을": 10753,
    "▁집중해": 10754,
    "▁표현하기": 10755,
    "▁좋겠다고": 10756,
    "▁켜지": 10757,
    "▁포함되": 10758,
    "▁영어와": 10759,
    "▁된것": 10760,
    "▁상품입니다": 10761,
    "▁전문가로": 10762,
    "하신다면": 10763,
    "▁국내에서": 10764,
    "▁가지가": 10765,
    "동에": 10766,
    "▁보낸다": 10767,
    "순": 10768,
    "▁남성이": 10769,
    "▁첫사랑": 10770,
    "되었으며": 10771,
    "▁가졌다": 10772,
    "▁아빠의": 10773,
    "▁들어본": 10774,
    "▁발급해": 10775,
    "▁받기로": 10776,
    "▁해리": 10777,
    "▁글로": 10778,
    "▁말씀드린": 10779,
    "천만": 10780,
    "▁연봉": 10781,
    "▁묻는": 10782,
    "음에": 10783,
    "▁고개": 10784,
    "▁배신": 10785,
    "▁줄이": 10786,
    "싱": 10787,
    "▁우리나라와": 10788,
    "대요": 10789,
    "▁상상해": 10790,
    "▁일어났": 10791,
    "▁수제": 10792,
    "▁편안해": 10793,
    "▁해주시기": 10794,
    "선이": 10795,
    "▁집행": 10796,
    "▁차별화": 10797,
    "▁보았는데": 10798,
    "▁이미지와": 10799,
    "▁인기있": 10800,
    "▁병원이": 10801,
    "▁모습에": 10802,
    "▁빠지는": 10803,
    "다는것을": 10804,
    "▁문서에": 10805,
    "▁단추": 10806,
    "▁발생하기": 10807,
    "▁사용된": 10808,
    "▁후보": 10809,
    "▁역사적": 10810,
    "▁기준에": 10811,
    "▁제작한": 10812,
    "▁구조로": 10813,
    "▁정신없": 10814,
    "▁간단하": 10815,
    "번호": 10816,
    "▁입증": 10817,
    "했다면": 10818,
    "있다": 10819,
    "야해요": 10820,
    "▁이걸로": 10821,
    "▁시면": 10822,
    "▁우정이": 10823,
    "되길": 10824,
    "▁성장해": 10825,
    "▁노동자들": 10826,
    "▁우리가족": 10827,
    "▁경기에": 10828,
    "맨": 10829,
    "탑": 10830,
    "답니다": 10831,
    "▁발생했": 10832,
    "▁공중": 10833,
    "70": 10834,
    "▁다른나라": 10835,
    "묘": 10836,
    "▁설사": 10837,
    "▁값은": 10838,
    "▁성적에": 10839,
    "▁불확실": 10840,
    "▁전설": 10841,
    "▁풍경이": 10842,
    "▁지루해": 10843,
    "선을": 10844,
    "영화": 10845,
    "▁세부에": 10846,
    "▁있으신": 10847,
    "▁규칙이": 10848,
    "▁방문하기": 10849,
    "▁영업을": 10850,
    "▁만들면": 10851,
    "겠죠": 10852,
    "▁가수들": 10853,
    "▁보상이": 10854,
    "▁추억으로": 10855,
    "▁시키기": 10856,
    "▁보통은": 10857,
    "▁어렵다는": 10858,
    "▁쓰려": 10859,
    "▁변수": 10860,
    "▁한적": 10861,
    "서비스": 10862,
    "▁건이": 10863,
    "제가": 10864,
    "▁아직까지": 10865,
    "▁계속되": 10866,
    "▁끊어": 10867,
    "됨": 10868,
    "갖": 10869,
    "▁결제한": 10870,
    "▁가득하": 10871,
    "▁주말이": 10872,
    "쉽게": 10873,
    "검사": 10874,
    "▁섬이": 10875,
    "▁자제": 10876,
    "▁넓히": 10877,
    "▁립스틱": 10878,
    "▁타깃": 10879,
    "▁질환": 10880,
    "▁계약에": 10881,
    "▁고집": 10882,
    "보는": 10883,
    "▁많았": 10884,
    "▁동성애": 10885,
    "0": 10886,
    "▁죄송하게": 10887,
    "▁낮아": 10888,
    "▁정류장에": 10889,
    "▁착용하": 10890,
    "▁근무하는": 10891,
    "▁지냈": 10892,
    "▁뜻은": 10893,
    "▁게재": 10894,
    "▁계절이": 10895,
    "▁시럽": 10896,
    "▁설문": 10897,
    "▁띠": 10898,
    "▁내에서": 10899,
    "▁한두": 10900,
    "▁달라진": 10901,
    "▁했더": 10902,
    "▁자식들": 10903,
    "▁햇": 10904,
    "▁억압": 10905,
    "▁지출": 10906,
    "▁선글라스": 10907,
    "▁외관": 10908,
    "▁디스플레이": 10909,
    "▁떡국": 10910,
    "▁움직여": 10911,
    "▁어울려": 10912,
    "▁주시겠어": 10913,
    "▁않으": 10914,
    "▁가라앉": 10915,
    "▁별명": 10916,
    "▁운전면허": 10917,
    "▁사이클": 10918,
    "▁나뭇잎": 10919,
    "▁동기부여": 10920,
    "▁문재인": 10921,
    "▁밸브": 10922,
    "▁사이좋": 10923,
    "▁스티븐": 10924,
    "▁썰매": 10925,
    "▁휴스턴": 10926,
    "▁힙합": 10927,
    "▁엑스레이": 10928,
    "▁빠릅니다": 10929,
    "▁유재석": 10930,
    "▁몬스터": 10931,
    "▁대기오염": 10932,
    "▁pdf": 10933,
    "▁태어날": 10934,
    "▁다가올": 10935,
    "▁신세계": 10936,
    "부턴": 10937,
    "▁한옥": 10938,
    "▁맞춘": 10939,
    "▁힘드네요": 10940,
    "▁닭갈비": 10941,
    "▁대충": 10942,
    "▁일으": 10943,
    "▁예정입니까": 10944,
    "▁출입국": 10945,
    "▁제공하겠습니다": 10946,
    "▁신앙": 10947,
    "▁창작": 10948,
    "▁오른손": 10949,
    "▁퀸": 10950,
    "▁부드러워": 10951,
    "▁키즈": 10952,
    "▁없었으면": 10953,
    "▁오버": 10954,
    "▁컨설팅": 10955,
    "▁스피킹": 10956,
    "▁넣습니다": 10957,
    "▁삼계탕": 10958,
    "▁탱크": 10959,
    "▁싶으신가요": 10960,
    "▁서두르": 10961,
    "▁찬성합니다": 10962,
    "▁싸울": 10963,
    "▁지냈습니다": 10964,
    "▁학급": 10965,
    "▁생애": 10966,
    "▁외로운": 10967,
    "▁지냈어요": 10968,
    "▁정오": 10969,
    "▁자매": 10970,
    "▁확인해보니": 10971,
    "▁잃어버려서": 10972,
    "▁닮아": 10973,
    "▁틀림없": 10974,
    "▁갔을때": 10975,
    "▁오늘하루": 10976,
    "▁꼬치": 10977,
    "지방": 10978,
    "▁읽습니다": 10979,
    "▁중심에": 10980,
    "▁걸렸어요": 10981,
    "▁소개할게요": 10982,
    "▁이기적인": 10983,
    "▁쓰세요": 10984,
    "▁유감입니다": 10985,
    "▁식욕": 10986,
    "▁보냈으면": 10987,
    "▁시작하세요": 10988,
    "▁하시죠": 10989,
    "▁솔": 10990,
    "▁명령어": 10991,
    "▁불가능하다면": 10992,
    "▁위스키": 10993,
    "▁예정이며": 10994,
    "▁마침": 10995,
    "▁악수": 10996,
    "▁복부": 10997,
    "▁선반": 10998,
    "▁파란": 10999,
    "▁스타들": 11000,
    "▁육체적": 11001,
    "▁수정했습니다": 11002,
    "▁경주에": 11003,
    "▁워킹": 11004,
    "▁힘들었어요": 11005,
    "▁방문했습니다": 11006,
    "▁클릭하면": 11007,
    "▁해야겠어": 11008,
    "▁전학": 11009,
    "▁가져갈": 11010,
    "▁Q": 11011,
    "▁쿠션": 11012,
    "▁진행되었습니다": 11013,
    "▁와중에": 11014,
    "▁마음만": 11015,
    "▁하네": 11016,
    "▁유적지": 11017,
    "▁세력": 11018,
    "▁다녔어요": 11019,
    "▁만드는데": 11020,
    "▁싹": 11021,
    "▁돌아왔": 11022,
    "▁형편": 11023,
    "▁들리지": 11024,
    "▁변색": 11025,
    "▁영상에서": 11026,
    "▁청결": 11027,
    "▁조달": 11028,
    "▁못하였습니다": 11029,
    "▁되죠": 11030,
    "▁해결되지": 11031,
    "긋": 11032,
    "▁아이스": 11033,
    "▁세탁소": 11034,
    "▁출근해야": 11035,
    "▁넓어": 11036,
    "▁잠겨": 11037,
    "▁없는데요": 11038,
    "▁배구": 11039,
    "▁예약했습니다": 11040,
    "▁정확하지": 11041,
    "▁싫어합니다": 11042,
    "▁체제": 11043,
    "▁인내": 11044,
    "▁깨워": 11045,
    "▁간주": 11046,
    "▁유효한": 11047,
    "▁들어와서": 11048,
    "▁지루하지": 11049,
    "▁좋아하": 11050,
    "▁나왔": 11051,
    "▁대비해서": 11052,
    "▁되었음": 11053,
    "r": 11054,
    "▁토이": 11055,
    "▁시원하게": 11056,
    "▁세운": 11057,
    "▁나쁘게": 11058,
    "▁빠지게": 11059,
    "▁창가": 11060,
    "▁다크": 11061,
    "▁망설이": 11062,
    "▁연금": 11063,
    "▁변비": 11064,
    "▁징": 11065,
    "▁이야기했습니다": 11066,
    "▁소비자에게": 11067,
    "▁싶어서요": 11068,
    "▁빼앗": 11069,
    "▁자신은": 11070,
    "▁진단서": 11071,
    "▁봤지만": 11072,
    "▁교체가": 11073,
    "▁작성해야": 11074,
    "▁화성": 11075,
    "▁주인공인": 11076,
    "▁보려": 11077,
    "▁쳤습니다": 11078,
    "▁적용하는": 11079,
    "▁화주": 11080,
    "▁지원하고": 11081,
    "▁정문": 11082,
    "셨나요": 11083,
    "▁나이트": 11084,
    "▁입점": 11085,
    "▁사용하는데": 11086,
    "▁그려져": 11087,
    "▁조사한": 11088,
    "▁환자에게": 11089,
    "▁감탄": 11090,
    "▁계좌번호": 11091,
    "▁버려서": 11092,
    "▁명세서": 11093,
    "▁교차": 11094,
    "▁둘이서": 11095,
    "▁최고입니다": 11096,
    "▁문의합니다": 11097,
    "▁해군": 11098,
    "▁말했다": 11099,
    "▁시간이었습니다": 11100,
    "▁기억합니다": 11101,
    "▁대행": 11102,
    "▁체육관에서": 11103,
    "▁끼치": 11104,
    "▁해안": 11105,
    "o": 11106,
    "▁실물": 11107,
    "▁증가하": 11108,
    "▁알아들을": 11109,
    "번째로": 11110,
    "▁배워서": 11111,
    "▁소품": 11112,
    "▁알려주기": 11113,
    "▁중요시": 11114,
    "였다": 11115,
    "▁대고": 11116,
    "▁취하는": 11117,
    "▁대체할": 11118,
    "시기": 11119,
    "▁잃고": 11120,
    "▁말해주": 11121,
    "▁추천할": 11122,
    "▁선불": 11123,
    "▁배려하": 11124,
    "▁로비에": 11125,
    "▁회사로부터": 11126,
    "▁일시적": 11127,
    "▁홀로": 11128,
    "▁말하는것": 11129,
    "▁부산은": 11130,
    "▁이행": 11131,
    "▁사다": 11132,
    "▁본사에": 11133,
    "▁비행기에": 11134,
    "션": 11135,
    "▁주는것이": 11136,
    "▁as": 11137,
    "▁단축": 11138,
    "▁소감": 11139,
    "▁사내": 11140,
    "▁추가된": 11141,
    "▁떠나지": 11142,
    "스의": 11143,
    "▁변경하여": 11144,
    "▁뻔": 11145,
    "▁반복해": 11146,
    "▁받으면서": 11147,
    "▁커플들": 11148,
    "었을": 11149,
    "주를": 11150,
    "▁아끼": 11151,
    "▁물질이": 11152,
    "▁녹여": 11153,
    "▁시차가": 11154,
    "▁대중적인": 11155,
    "▁연락하기": 11156,
    "업체": 11157,
    "▁끝나기": 11158,
    "▁잘못이": 11159,
    "▁힐": 11160,
    "▁있냐": 11161,
    "▁한지": 11162,
    "▁제재": 11163,
    "▁서로에": 11164,
    "▁문제들": 11165,
    "▁공이": 11166,
    "▁의사소통이": 11167,
    "드릴": 11168,
    "▁확률": 11169,
    "▁학업에": 11170,
    "▁청소하는": 11171,
    "했었어": 11172,
    "▁너희에게": 11173,
    "▁취소할": 11174,
    "▁현지에서": 11175,
    "▁않았다는": 11176,
    "▁탭": 11177,
    "▁기다리면": 11178,
    "▁메시지에": 11179,
    "▁어려서": 11180,
    "▁들어야": 11181,
    "▁일했어요": 11182,
    "▁홍대": 11183,
    "▁저금": 11184,
    "▁졌다": 11185,
    "주겠습니다": 11186,
    "▁특권": 11187,
    "▁워크숍": 11188,
    "▁전보다": 11189,
    "▁보자고": 11190,
    "꺼야": 11191,
    "▁기적": 11192,
    "▁센터에서": 11193,
    "▁다른데": 11194,
    "▁정한": 11195,
    "▁연결되는": 11196,
    "▁수사": 11197,
    "▁형과": 11198,
    "▁물로": 11199,
    "▁배운다": 11200,
    "건에": 11201,
    "잔": 11202,
    "비는": 11203,
    "▁타입이": 11204,
    "▁주에는": 11205,
    "▁누구라": 11206,
    "▁강인": 11207,
    "▁쉬어야": 11208,
    "▁배웠": 11209,
    "▁물속": 11210,
    "▁뜨는": 11211,
    "▁이야기하면": 11212,
    "▁들게": 11213,
    "▁놓을": 11214,
    "▁걱정되": 11215,
    "▁관계에서": 11216,
    "되었고": 11217,
    "▁보호하는": 11218,
    "▁저하": 11219,
    "▁부대": 11220,
    "▁걸렸": 11221,
    "▁책임자": 11222,
    "▁지수": 11223,
    "▁드라마에": 11224,
    "▁객관적": 11225,
    "분을": 11226,
    "▁료": 11227,
    "르는": 11228,
    "▁당한": 11229,
    "▁이마": 11230,
    "▁쇼에": 11231,
    "▁말씀하시는": 11232,
    "▁비정상적": 11233,
    "▁월드컵": 11234,
    "개와": 11235,
    "▁첨부파일에": 11236,
    "장에서": 11237,
    "▁75": 11238,
    "▁타이틀": 11239,
    "▁노인들": 11240,
    "▁먹어본": 11241,
    "▁교실을": 11242,
    "▁스마트폰으로": 11243,
    "컬": 11244,
    "▁활용해": 11245,
    "연한": 11246,
    "▁규칙적": 11247,
    "▁안쪽에": 11248,
    "▁가니": 11249,
    "▁바르는": 11250,
    "▁카니발": 11251,
    "b": 11252,
    "▁기대되는": 11253,
    "▁어디가": 11254,
    "▁하우스에": 11255,
    "▁여분": 11256,
    "기간": 11257,
    "밥": 11258,
    "▁뒤집": 11259,
    "▁거고": 11260,
    "▁있기만": 11261,
    "▁그다음": 11262,
    "▁의사소통을": 11263,
    "▁상대방이": 11264,
    "▁일요일이": 11265,
    "▁적극적이": 11266,
    "됐습니다": 11267,
    "▁통화로": 11268,
    "▁참여하기": 11269,
    "▁동안에": 11270,
    "핑": 11271,
    "▁실무": 11272,
    "▁그림으로": 11273,
    "차가": 11274,
    "▁정부에서": 11275,
    "▁유기": 11276,
    "물에": 11277,
    "▁중국과": 11278,
    "▁의사와": 11279,
    "였을": 11280,
    "▁않으니": 11281,
    "▁드러나": 11282,
    "▁착륙": 11283,
    "▁유연": 11284,
    "▁국제적": 11285,
    "▁날인": 11286,
    "파크": 11287,
    "▁결정해": 11288,
    "활동": 11289,
    "▁33": 11290,
    "▁진다": 11291,
    "▁교환학생": 11292,
    "커": 11293,
    "▁격려": 11294,
    "▁회장님": 11295,
    "▁만지": 11296,
    "▁이글": 11297,
    "▁세로": 11298,
    "▁파운드": 11299,
    "▁나온다": 11300,
    "▁왼손": 11301,
    "▁표현해": 11302,
    "운동": 11303,
    "▁안정적이": 11304,
    "▁반대하": 11305,
    "▁역할이": 11306,
    "▁식은": 11307,
    "▁네덜란드": 11308,
    "▁발매": 11309,
    "▁좌석을": 11310,
    "▁r": 11311,
    "▁가족에": 11312,
    "▁오사카에": 11313,
    "▁만들어져": 11314,
    "▁방문했": 11315,
    "앤": 11316,
    "▁피고": 11317,
    "스터": 11318,
    "▁전문가들": 11319,
    "▁변한": 11320,
    "▁주문했던": 11321,
    "갔다": 11322,
    "▁맡기": 11323,
    "섬": 11324,
    "▁성격에": 11325,
    "▁메뉴판": 11326,
    "혈": 11327,
    "폭": 11328,
    "진이": 11329,
    "테": 11330,
    "▁개발한": 11331,
    "포인트": 11332,
    "노": 11333,
    "▁부엌": 11334,
    "▁한우": 11335,
    "▁꾸며": 11336,
    "▁애들이": 11337,
    "▁진보": 11338,
    "▁도착했": 11339,
    "자료": 11340,
    "▁배포": 11341,
    "▁화내": 11342,
    "▁택": 11343,
    "▁때문이라": 11344,
    "받지": 11345,
    "▁연구하는": 11346,
    "▁참기름": 11347,
    "개발": 11348,
    "▁걸으면": 11349,
    "▁본성": 11350,
    "▁매력이": 11351,
    "▁마땅": 11352,
    "▁종이컵": 11353,
    "▁음악과": 11354,
    "▁가방에": 11355,
    "▁위안부": 11356,
    "▁지난달": 11357,
    "▁집단의": 11358,
    "▁물기": 11359,
    "▁시각적": 11360,
    "▁효율성": 11361,
    "▁재밌었어": 11362,
    "▁수박": 11363,
    "▁정책에": 11364,
    "▁어딘가": 11365,
    "해보고": 11366,
    "했으나": 11367,
    "▁역사의": 11368,
    "▁접촉": 11369,
    "▁겸손": 11370,
    "▁심하": 11371,
    "▁해제": 11372,
    "▁사막": 11373,
    "▁어우러져": 11374,
    "이기에": 11375,
    "▁베이징에": 11376,
    "▁갖추어": 11377,
    "▁운동장에": 11378,
    "▁아프다": 11379,
    "▁습득": 11380,
    "▁레이아웃": 11381,
    "▁초대하": 11382,
    "▁드라이": 11383,
    "▁플랜": 11384,
    "▁사용하는지": 11385,
    "▁상품들": 11386,
    "▁숙녀": 11387,
    "▁어필": 11388,
    "▁사진만": 11389,
[...]
